/* Copyright 2020 The TensorFlow Authors. All Rights Reserved.

Licensed under the Apache License, Version 2.0 (the "License");
you may not use this file except in compliance with the License.
You may obtain a copy of the License at

    http://www.apache.org/licenses/LICENSE-2.0

Unless required by applicable law or agreed to in writing, software
distributed under the License is distributed on an "AS IS" BASIS,
WITHOUT WARRANTIES OR CONDITIONS OF ANY KIND, either express or implied.
See the License for the specific language governing permissions and
limitations under the License.
==============================================================================*/

// Automatically created from a TensorFlow Lite flatbuffer using the command:
// xxd -i model.tflite > model.cc

// This is a standard TensorFlow Lite model file that has been converted into a
// C data array, so it can be easily compiled into a binary for devices that
// don't have a file system.

// See train/README.md for a full description of the creation process.

#include "model.h"

// Keep model aligned to 8 bytes to guarantee aligned 64-bit accesses.
alignas(8) const unsigned char g_model[] = {
    0x1c, 0x00, 0x00, 0x00, 0x54, 0x46, 0x4c, 0x33, 0x14, 0x00, 0x20, 0x00,
  0x1c, 0x00, 0x18, 0x00, 0x14, 0x00, 0x10, 0x00, 0x0c, 0x00, 0x00, 0x00,
  0x08, 0x00, 0x04, 0x00, 0x14, 0x00, 0x00, 0x00, 0x1c, 0x00, 0x00, 0x00,
  0x98, 0x00, 0x00, 0x00, 0xf0, 0x00, 0x00, 0x00, 0x08, 0x07, 0x00, 0x00,
  0x18, 0x07, 0x00, 0x00, 0xf0, 0x0b, 0x00, 0x00, 0x03, 0x00, 0x00, 0x00,
  0x01, 0x00, 0x00, 0x00, 0x10, 0x00, 0x00, 0x00, 0x00, 0x00, 0x0a, 0x00,
  0x10, 0x00, 0x0c, 0x00, 0x08, 0x00, 0x04, 0x00, 0x0a, 0x00, 0x00, 0x00,
  0x0c, 0x00, 0x00, 0x00, 0x1c, 0x00, 0x00, 0x00, 0x3c, 0x00, 0x00, 0x00,
  0x0f, 0x00, 0x00, 0x00, 0x73, 0x65, 0x72, 0x76, 0x69, 0x6e, 0x67, 0x5f,
  0x64, 0x65, 0x66, 0x61, 0x75, 0x6c, 0x74, 0x00, 0x01, 0x00, 0x00, 0x00,
  0x04, 0x00, 0x00, 0x00, 0x90, 0xff, 0xff, 0xff, 0x09, 0x00, 0x00, 0x00,
  0x04, 0x00, 0x00, 0x00, 0x08, 0x00, 0x00, 0x00, 0x6f, 0x75, 0x74, 0x70,
  0x75, 0x74, 0x5f, 0x30, 0x00, 0x00, 0x00, 0x00, 0x01, 0x00, 0x00, 0x00,
  0x04, 0x00, 0x00, 0x00, 0xc6, 0xf9, 0xff, 0xff, 0x04, 0x00, 0x00, 0x00,
  0x0c, 0x00, 0x00, 0x00, 0x6b, 0x65, 0x72, 0x61, 0x73, 0x5f, 0x74, 0x65,
  0x6e, 0x73, 0x6f, 0x72, 0x00, 0x00, 0x00, 0x00, 0x02, 0x00, 0x00, 0x00,
  0x34, 0x00, 0x00, 0x00, 0x04, 0x00, 0x00, 0x00, 0xdc, 0xff, 0xff, 0xff,
  0x0c, 0x00, 0x00, 0x00, 0x04, 0x00, 0x00, 0x00, 0x13, 0x00, 0x00, 0x00,
  0x43, 0x4f, 0x4e, 0x56, 0x45, 0x52, 0x53, 0x49, 0x4f, 0x4e, 0x5f, 0x4d,
  0x45, 0x54, 0x41, 0x44, 0x41, 0x54, 0x41, 0x00, 0x08, 0x00, 0x0c, 0x00,
  0x08, 0x00, 0x04, 0x00, 0x08, 0x00, 0x00, 0x00, 0x0b, 0x00, 0x00, 0x00,
  0x04, 0x00, 0x00, 0x00, 0x13, 0x00, 0x00, 0x00, 0x6d, 0x69, 0x6e, 0x5f,
  0x72, 0x75, 0x6e, 0x74, 0x69, 0x6d, 0x65, 0x5f, 0x76, 0x65, 0x72, 0x73,
  0x69, 0x6f, 0x6e, 0x00, 0x0d, 0x00, 0x00, 0x00, 0x14, 0x06, 0x00, 0x00,
  0x0c, 0x06, 0x00, 0x00, 0xbc, 0x05, 0x00, 0x00, 0xa4, 0x01, 0x00, 0x00,
  0x90, 0x01, 0x00, 0x00, 0x40, 0x01, 0x00, 0x00, 0xf0, 0x00, 0x00, 0x00,
  0xa0, 0x00, 0x00, 0x00, 0x98, 0x00, 0x00, 0x00, 0x90, 0x00, 0x00, 0x00,
  0x88, 0x00, 0x00, 0x00, 0x68, 0x00, 0x00, 0x00, 0x04, 0x00, 0x00, 0x00,
  0x76, 0xfa, 0xff, 0xff, 0x04, 0x00, 0x00, 0x00, 0x54, 0x00, 0x00, 0x00,
  0x0c, 0x00, 0x00, 0x00, 0x08, 0x00, 0x0e, 0x00, 0x08, 0x00, 0x04, 0x00,
  0x08, 0x00, 0x00, 0x00, 0x10, 0x00, 0x00, 0x00, 0x24, 0x00, 0x00, 0x00,
  0x00, 0x00, 0x06, 0x00, 0x08, 0x00, 0x04, 0x00, 0x06, 0x00, 0x00, 0x00,
  0x04, 0x00, 0x00, 0x00, 0x00, 0x00, 0x00, 0x00, 0x00, 0x00, 0x0a, 0x00,
  0x10, 0x00, 0x0c, 0x00, 0x08, 0x00, 0x04, 0x00, 0x0a, 0x00, 0x00, 0x00,
  0x01, 0x00, 0x00, 0x00, 0x02, 0x00, 0x00, 0x00, 0x04, 0x00, 0x00, 0x00,
  0x06, 0x00, 0x00, 0x00, 0x32, 0x2e, 0x31, 0x36, 0x2e, 0x31, 0x00, 0x00,
  0xd6, 0xfa, 0xff, 0xff, 0x04, 0x00, 0x00, 0x00, 0x10, 0x00, 0x00, 0x00,
  0x31, 0x2e, 0x35, 0x2e, 0x30, 0x00, 0x00, 0x00, 0x00, 0x00, 0x00, 0x00,
  0x00, 0x00, 0x00, 0x00, 0xe0, 0xf5, 0xff, 0xff, 0xe4, 0xf5, 0xff, 0xff,
  0xe8, 0xf5, 0xff, 0xff, 0xfe, 0xfa, 0xff, 0xff, 0x04, 0x00, 0x00, 0x00,
  0x40, 0x00, 0x00, 0x00, 0xd3, 0x7e, 0xb9, 0x3e, 0xea, 0xfe, 0x0c, 0x3f,
  0xf0, 0x44, 0x96, 0x3e, 0xe2, 0xe9, 0x9d, 0x3c, 0x36, 0x74, 0xc2, 0x3e,
  0xb9, 0x73, 0x12, 0xbf, 0xf2, 0x73, 0x92, 0xbe, 0xf1, 0x2b, 0x7d, 0x3e,
  0x1b, 0x38, 0xb1, 0x3e, 0x10, 0xff, 0x79, 0xbd, 0x6f, 0x36, 0x14, 0x3e,
  0xb7, 0x76, 0x11, 0xbf, 0x5b, 0xb9, 0x0b, 0x3e, 0xdf, 0xe2, 0x06, 0x3f,
  0x40, 0xbb, 0x4f, 0xbc, 0x15, 0xf9, 0x47, 0x3e, 0x4a, 0xfb, 0xff, 0xff,
  0x04, 0x00, 0x00, 0x00, 0x40, 0x00, 0x00, 0x00, 0x79, 0xdc, 0x93, 0xbe,
  0x44, 0xd0, 0xb3, 0x3e, 0x84, 0x76, 0x27, 0xbe, 0x2f, 0xa1, 0x94, 0x3e,
  0x75, 0x06, 0x08, 0x3e, 0x00, 0x00, 0x00, 0x00, 0x00, 0x00, 0x00, 0x00,
  0xf5, 0x1a, 0x8a, 0x3e, 0xdb, 0xc0, 0x51, 0xbb, 0x00, 0x00, 0x00, 0x00,
  0x19, 0x76, 0x5d, 0xbe, 0x00, 0x00, 0x00, 0x00, 0xfa, 0xce, 0x3e, 0xbe,
  0xfa, 0x12, 0x44, 0xbd, 0x00, 0x00, 0x00, 0x00, 0x0d, 0xb2, 0x4e, 0xbe,
  0x96, 0xfb, 0xff, 0xff, 0x04, 0x00, 0x00, 0x00, 0x40, 0x00, 0x00, 0x00,
  0x4f, 0x34, 0x8c, 0x3e, 0x73, 0x4d, 0x71, 0xbd, 0x00, 0x00, 0x00, 0x00,
  0x00, 0x00, 0x00, 0x00, 0x41, 0x40, 0x6c, 0xbe, 0x00, 0x00, 0x00, 0x00,
  0x00, 0x00, 0x00, 0x00, 0x52, 0x65, 0x27, 0xbe, 0x23, 0x3d, 0x8d, 0x3e,
  0xcd, 0x8b, 0x49, 0xbe, 0x9b, 0xaa, 0x3b, 0xbe, 0x94, 0x1c, 0xc7, 0x3d,
  0x00, 0x00, 0x00, 0x00, 0x04, 0x40, 0xfe, 0x3d, 0xcd, 0x77, 0x11, 0xbc,
  0xa2, 0xf0, 0xce, 0xbc, 0xe2, 0xfb, 0xff, 0xff, 0x04, 0x00, 0x00, 0x00,
  0x04, 0x00, 0x00, 0x00, 0x15, 0xc7, 0x8c, 0x3e, 0xf2, 0xfb, 0xff, 0xff,
  0x04, 0x00, 0x00, 0x00, 0x00, 0x04, 0x00, 0x00, 0x58, 0x8f, 0xb1, 0xbe,
  0x2e, 0xfe, 0x25, 0x3e, 0xea, 0x82, 0x66, 0xbd, 0x7e, 0x88, 0xc1, 0x3e,
  0x8b, 0x4a, 0xda, 0xbe, 0x70, 0x9e, 0x7c, 0xbd, 0x80, 0xa4, 0x50, 0x3c,
  0x84, 0xa4, 0x83, 0x3e, 0xd8, 0xa5, 0x21, 0xbf, 0x02, 0xd2, 0x5b, 0x3e,
  0x8f, 0x84, 0xce, 0xbe, 0xbf, 0xd0, 0x6d, 0xbe, 0xeb, 0xae, 0x45, 0xbe,
  0x9c, 0x7c, 0xe4, 0xbe, 0x90, 0xaf, 0x97, 0xbe, 0xa8, 0xef, 0xa1, 0x3d,
  0x41, 0xb0, 0xc6, 0xbe, 0x03, 0x68, 0x32, 0xbe, 0xd2, 0xe2, 0x9c, 0xbe,
  0xf4, 0xe0, 0x8f, 0x3e, 0x93, 0xb6, 0x99, 0xbe, 0xa0, 0xd6, 0xe5, 0xbd,
  0x6b, 0x09, 0xbd, 0x3e, 0x74, 0x5e, 0x93, 0x3e, 0xc6, 0x5e, 0x20, 0x3e,
  0xad, 0x6c, 0x5f, 0xbe, 0xb3, 0xe7, 0xdc, 0x3e, 0x86, 0x27, 0x18, 0xbe,
  0x02, 0x99, 0x31, 0x3e, 0xe7, 0xd3, 0x44, 0xbe, 0xbc, 0xcb, 0xc7, 0xbd,
  0xcc, 0x0a, 0x93, 0xbe, 0xe0, 0x06, 0x0c, 0xbe, 0x10, 0x6f, 0xc7, 0xbd,
  0x75, 0xe8, 0x59, 0xbe, 0x82, 0x9b, 0x33, 0x3e, 0x4c, 0x1d, 0xb0, 0x3d,
  0x5c, 0x3c, 0x22, 0xbe, 0x35, 0xb6, 0x82, 0x3e, 0xd7, 0xcb, 0xc7, 0xbe,
  0x15, 0x9d, 0xc8, 0x3e, 0x39, 0xb9, 0xab, 0x3e, 0x10, 0x00, 0xef, 0x3c,
  0x3c, 0x74, 0xcc, 0xbe, 0x82, 0x09, 0x67, 0x3e, 0x27, 0xec, 0xca, 0xbe,
  0x7f, 0x6a, 0x8d, 0x3e, 0x8e, 0x93, 0x7d, 0x3e, 0x20, 0x8c, 0xae, 0xbc,
  0x58, 0x5d, 0x45, 0x3d, 0x18, 0xfe, 0xd9, 0xbe, 0xb5, 0xb1, 0x73, 0xbe,
  0xd8, 0x86, 0x2b, 0x3d, 0xa2, 0x35, 0x57, 0x3e, 0xc4, 0xa9, 0xcf, 0x3d,
  0x5a, 0xb0, 0xb7, 0xbe, 0xef, 0xf1, 0x8a, 0x3e, 0x20, 0x3f, 0x62, 0x3d,
  0xe8, 0xb7, 0x38, 0x3d, 0x6d, 0x88, 0x54, 0xbe, 0x04, 0x43, 0xe7, 0x3d,
  0x18, 0x67, 0xba, 0xbe, 0x29, 0xe5, 0xcf, 0x3e, 0xb0, 0xdd, 0x59, 0xbe,
  0x82, 0xe7, 0x98, 0x3d, 0x3e, 0x82, 0x5e, 0x3e, 0x9f, 0xdd, 0x83, 0xbd,
  0x60, 0xfc, 0x38, 0x3c, 0x7c, 0x89, 0xa7, 0xbe, 0x08, 0xa1, 0xd3, 0xbd,
  0xe4, 0x09, 0x9b, 0x3d, 0xb8, 0xe6, 0xc2, 0x3e, 0x73, 0x70, 0xd0, 0x3e,
  0x2b, 0x30, 0xaf, 0x3e, 0xb1, 0x69, 0xe2, 0x3d, 0xdf, 0x60, 0xb3, 0x3e,
  0xc6, 0x38, 0x97, 0xbd, 0xff, 0xfd, 0xc9, 0xbe, 0x75, 0xa8, 0x48, 0xbe,
  0x43, 0x36, 0xdd, 0x3e, 0xd0, 0xb4, 0x18, 0xbd, 0x88, 0x6d, 0x37, 0x3d,
  0x18, 0x4c, 0x4b, 0xbe, 0x35, 0x18, 0xc0, 0x3e, 0x1d, 0x6a, 0x54, 0xbe,
  0x9d, 0x61, 0xa5, 0x3e, 0x24, 0x36, 0x80, 0x3d, 0xbc, 0xa8, 0xc4, 0xbe,
  0xbc, 0x70, 0xb5, 0x3d, 0xc5, 0xb2, 0x6c, 0xbe, 0x0c, 0xc3, 0xcd, 0xbe,
  0xa0, 0x7d, 0x59, 0x3c, 0x38, 0x43, 0xb4, 0xbe, 0x00, 0x29, 0xea, 0x3c,
  0x99, 0x71, 0xba, 0x3e, 0xb4, 0xce, 0xac, 0xbe, 0x2c, 0x8a, 0x6c, 0xbe,
  0xba, 0x7c, 0x9d, 0xbe, 0xa8, 0x22, 0xab, 0xbe, 0x00, 0x7e, 0xaa, 0xbb,
  0xe0, 0x50, 0x08, 0xbe, 0x01, 0xfe, 0x9c, 0x3e, 0xa6, 0x5d, 0xba, 0xbe,
  0x96, 0x80, 0xb4, 0xbe, 0x14, 0x94, 0xa9, 0x3d, 0x9c, 0xe2, 0xdd, 0xbd,
  0x02, 0x8e, 0xaa, 0xbe, 0xa7, 0x1f, 0xdd, 0x3e, 0xc7, 0x69, 0x9e, 0x3e,
  0xc3, 0x42, 0xa2, 0x3e, 0x6c, 0x7b, 0xb4, 0x3d, 0xf0, 0x38, 0xcc, 0xbe,
  0x24, 0xaa, 0x84, 0x3e, 0x9a, 0x84, 0xc5, 0xbd, 0x6c, 0x35, 0x49, 0x3e,
  0x0c, 0xde, 0x1a, 0x3e, 0xc0, 0xb9, 0xc3, 0xbe, 0xa0, 0x1e, 0x98, 0xbd,
  0xc1, 0x3c, 0xb2, 0xbe, 0xc4, 0x24, 0x0c, 0xbd, 0x1a, 0xfb, 0xa0, 0x3e,
  0xc0, 0xa0, 0xf3, 0x3c, 0xed, 0xb3, 0xd6, 0x3e, 0x68, 0x10, 0x96, 0xbd,
  0x9a, 0x2c, 0xc7, 0x3e, 0xd1, 0xfb, 0xa1, 0x3e, 0x27, 0x6a, 0x84, 0x3e,
  0xad, 0x61, 0x16, 0xbd, 0xdf, 0x03, 0x9d, 0xbe, 0x6d, 0x54, 0xb4, 0x3e,
  0x0c, 0x2f, 0x73, 0x3d, 0x7a, 0x91, 0x91, 0x3e, 0x83, 0x7b, 0x56, 0x3e,
  0x7c, 0x18, 0xfc, 0xbd, 0x06, 0xa1, 0xcc, 0xbe, 0xcb, 0x5f, 0x8a, 0x3e,
  0x0e, 0x26, 0x50, 0x3e, 0x4c, 0x0e, 0xb4, 0xbe, 0x87, 0x31, 0x62, 0xbe,
  0x31, 0x2a, 0xb5, 0x3e, 0xfb, 0xb2, 0x41, 0xbd, 0x70, 0x6d, 0xb0, 0x3e,
  0xd6, 0x72, 0x32, 0xbe, 0x40, 0x21, 0x67, 0x3e, 0x22, 0x2c, 0xfd, 0xbc,
  0x24, 0xb8, 0xa8, 0x3d, 0x77, 0x72, 0x50, 0x3e, 0xd1, 0x0a, 0xc6, 0xbd,
  0x31, 0xf9, 0x86, 0xbe, 0x59, 0xa1, 0xa7, 0x3e, 0x60, 0xcd, 0xec, 0x3c,
  0x25, 0xa6, 0x83, 0xbe, 0x4b, 0xb6, 0x37, 0x3e, 0x8c, 0xce, 0xb5, 0xbe,
  0xe2, 0xaa, 0x91, 0xbe, 0x8c, 0x08, 0xa1, 0x3d, 0xf7, 0xf2, 0xea, 0x3e,
  0xe5, 0xe5, 0xde, 0x3e, 0x20, 0x7f, 0x52, 0x3c, 0xa4, 0xa2, 0xea, 0x3d,
  0x8e, 0x04, 0xd6, 0x3e, 0x07, 0xca, 0x1c, 0x3d, 0xd9, 0x57, 0x46, 0x3e,
  0xbe, 0x48, 0x05, 0xbf, 0x25, 0xdc, 0xa6, 0x3d, 0xd0, 0x72, 0x8b, 0xbe,
  0xc2, 0xe5, 0xcb, 0xbe, 0x98, 0x06, 0x5f, 0xbe, 0xa0, 0xf5, 0xeb, 0xbd,
  0x46, 0x69, 0x23, 0x3e, 0x51, 0x37, 0xba, 0x3e, 0x40, 0x82, 0x9e, 0x3c,
  0xcd, 0xd5, 0xe1, 0x3d, 0xe5, 0x87, 0xae, 0x3e, 0xdf, 0x04, 0x4a, 0xbe,
  0x2b, 0x58, 0xb8, 0x3e, 0x60, 0x59, 0xcc, 0xbe, 0xae, 0x23, 0xef, 0x3e,
  0x98, 0x20, 0x1d, 0x3d, 0xa4, 0x24, 0x01, 0x3e, 0x65, 0x99, 0xc8, 0x3e,
  0x7f, 0x28, 0x91, 0x3e, 0x75, 0xa9, 0xd9, 0x3e, 0xfe, 0x99, 0xfa, 0x3e,
  0x7c, 0x6c, 0x13, 0x3d, 0x0d, 0x8a, 0xc5, 0x3e, 0xe0, 0x16, 0x92, 0xbe,
  0xf3, 0xa7, 0xba, 0x3e, 0x29, 0xdf, 0x84, 0xbe, 0x60, 0x56, 0x96, 0xbe,
  0x60, 0x13, 0x0e, 0x3c, 0x78, 0xd0, 0xaa, 0xbe, 0x51, 0x75, 0x93, 0xbe,
  0xb6, 0xd2, 0x13, 0xbe, 0xa6, 0x95, 0x35, 0xbe, 0xf4, 0xae, 0xdc, 0x3d,
  0xac, 0x69, 0x89, 0x3d, 0x57, 0xbf, 0x9f, 0x3e, 0x60, 0x99, 0x59, 0xbc,
  0x98, 0xb8, 0x13, 0xbe, 0x90, 0x6b, 0x08, 0xbd, 0x8e, 0x70, 0xc7, 0xbe,
  0x7c, 0x2a, 0x34, 0xbe, 0x69, 0xe6, 0xcc, 0x3e, 0x23, 0xa1, 0x71, 0xbe,
  0x70, 0xac, 0x6c, 0x3d, 0xd4, 0xdb, 0xbe, 0xbe, 0x0d, 0xec, 0xb1, 0xbe,
  0x78, 0x98, 0x9b, 0x3e, 0x51, 0x2a, 0xd9, 0x3d, 0x22, 0x17, 0xac, 0xbe,
  0x2c, 0xb7, 0x83, 0x3e, 0x2f, 0xbe, 0xce, 0xbe, 0x27, 0x5e, 0xad, 0x3e,
  0xb8, 0xf5, 0x09, 0xbd, 0x87, 0x5f, 0xfa, 0x3c, 0x6f, 0x42, 0x6e, 0xbe,
  0xd4, 0x4b, 0xc4, 0x3d, 0xee, 0xe4, 0x77, 0x3e, 0x40, 0xf4, 0xae, 0xbb,
  0xa7, 0x00, 0x5a, 0xbe, 0xe6, 0xee, 0x91, 0xbe, 0x27, 0xd2, 0xa9, 0x3e,
  0xa9, 0x0c, 0xdd, 0xbd, 0x20, 0xa9, 0x43, 0xbc, 0x9f, 0x66, 0x14, 0xbe,
  0x54, 0x8e, 0x23, 0xbe, 0x69, 0x75, 0x87, 0x3e, 0xe1, 0x12, 0x71, 0xbd,
  0x20, 0x03, 0xa8, 0xbe, 0x87, 0x08, 0xc3, 0x3e, 0x8d, 0x43, 0x11, 0xbd,
  0x28, 0x3c, 0x3a, 0xbe, 0x36, 0x72, 0x9f, 0xbe, 0xbe, 0xf6, 0xac, 0xbe,
  0x24, 0xe4, 0x81, 0xbe, 0xc1, 0x93, 0xd0, 0x3e, 0xa5, 0x21, 0x85, 0xbe,
  0xb4, 0x73, 0x87, 0xbd, 0x6e, 0x8a, 0x37, 0x3e, 0xad, 0x8e, 0xbc, 0x3e,
  0xdb, 0x5b, 0xb2, 0xbe, 0xa9, 0x6b, 0xda, 0xbe, 0xdd, 0xc8, 0xd7, 0x3e,
  0xa9, 0x59, 0xe1, 0xbc, 0x85, 0x8a, 0xdb, 0x3e, 0x81, 0x03, 0xab, 0x3e,
  0x47, 0xcf, 0xc9, 0x3d, 0x9a, 0xe6, 0xb2, 0xbe, 0x8b, 0x45, 0xc3, 0x3e,
  0x46, 0x6f, 0x04, 0xbe, 0x52, 0x7f, 0x28, 0xbe, 0x56, 0x2d, 0x4a, 0x3e,
  0x80, 0xbd, 0x24, 0x3b, 0x10, 0xd4, 0xb4, 0xbc, 0xdc, 0x64, 0xa3, 0xbd,
  0x00, 0x00, 0x06, 0x00, 0x08, 0x00, 0x04, 0x00, 0x06, 0x00, 0x00, 0x00,
  0x04, 0x00, 0x00, 0x00, 0x40, 0x00, 0x00, 0x00, 0xec, 0x2d, 0x6b, 0xbf,
  0x86, 0x3f, 0xf5, 0x3e, 0xab, 0xe5, 0x12, 0xbf, 0x90, 0xab, 0xbc, 0x3d,
  0x3a, 0xcb, 0xa3, 0xbe, 0x08, 0x81, 0xb3, 0x3e, 0xa2, 0x84, 0x00, 0x3f,
  0x89, 0xb4, 0x31, 0xbf, 0xbd, 0x59, 0xbf, 0x3e, 0x7f, 0x87, 0x08, 0xbf,
  0x4e, 0x80, 0x23, 0xbf, 0x3a, 0xbc, 0x4f, 0x3e, 0x58, 0x65, 0xc7, 0xbd,
  0x7b, 0x6c, 0x40, 0xbf, 0x81, 0x56, 0x93, 0x3e, 0x39, 0xc8, 0xa0, 0x3e,
  0x40, 0xfb, 0xff, 0xff, 0x44, 0xfb, 0xff, 0xff, 0x0f, 0x00, 0x00, 0x00,
  0x4d, 0x4c, 0x49, 0x52, 0x20, 0x43, 0x6f, 0x6e, 0x76, 0x65, 0x72, 0x74,
  0x65, 0x64, 0x2e, 0x00, 0x01, 0x00, 0x00, 0x00, 0x14, 0x00, 0x00, 0x00,
  0x00, 0x00, 0x0e, 0x00, 0x18, 0x00, 0x14, 0x00, 0x10, 0x00, 0x0c, 0x00,
  0x08, 0x00, 0x04, 0x00, 0x0e, 0x00, 0x00, 0x00, 0x14, 0x00, 0x00, 0x00,
  0x1c, 0x00, 0x00, 0x00, 0xd8, 0x00, 0x00, 0x00, 0xdc, 0x00, 0x00, 0x00,
  0xe0, 0x00, 0x00, 0x00, 0x04, 0x00, 0x00, 0x00, 0x6d, 0x61, 0x69, 0x6e,
  0x00, 0x00, 0x00, 0x00, 0x03, 0x00, 0x00, 0x00, 0x80, 0x00, 0x00, 0x00,
  0x38, 0x00, 0x00, 0x00, 0x04, 0x00, 0x00, 0x00, 0x9a, 0xff, 0xff, 0xff,
  0x10, 0x00, 0x00, 0x00, 0x00, 0x00, 0x00, 0x08, 0x0c, 0x00, 0x00, 0x00,
  0x10, 0x00, 0x00, 0x00, 0xbc, 0xfb, 0xff, 0xff, 0x01, 0x00, 0x00, 0x00,
  0x09, 0x00, 0x00, 0x00, 0x03, 0x00, 0x00, 0x00, 0x08, 0x00, 0x00, 0x00,
  0x01, 0x00, 0x00, 0x00, 0x03, 0x00, 0x00, 0x00, 0xca, 0xff, 0xff, 0xff,
  0x10, 0x00, 0x00, 0x00, 0x00, 0x00, 0x00, 0x08, 0x10, 0x00, 0x00, 0x00,
  0x14, 0x00, 0x00, 0x00, 0xba, 0xff, 0xff, 0xff, 0x00, 0x00, 0x00, 0x01,
  0x01, 0x00, 0x00, 0x00, 0x08, 0x00, 0x00, 0x00, 0x03, 0x00, 0x00, 0x00,
  0x07, 0x00, 0x00, 0x00, 0x02, 0x00, 0x00, 0x00, 0x04, 0x00, 0x00, 0x00,
  0x00, 0x00, 0x0e, 0x00, 0x16, 0x00, 0x00, 0x00, 0x10, 0x00, 0x0c, 0x00,
  0x0b, 0x00, 0x04, 0x00, 0x0e, 0x00, 0x00, 0x00, 0x18, 0x00, 0x00, 0x00,
  0x00, 0x00, 0x00, 0x08, 0x18, 0x00, 0x00, 0x00, 0x1c, 0x00, 0x00, 0x00,
  0x00, 0x00, 0x06, 0x00, 0x08, 0x00, 0x07, 0x00, 0x06, 0x00, 0x00, 0x00,
  0x00, 0x00, 0x00, 0x01, 0x01, 0x00, 0x00, 0x00, 0x07, 0x00, 0x00, 0x00,
  0x03, 0x00, 0x00, 0x00, 0x00, 0x00, 0x00, 0x00, 0x06, 0x00, 0x00, 0x00,
  0x05, 0x00, 0x00, 0x00, 0x01, 0x00, 0x00, 0x00, 0x09, 0x00, 0x00, 0x00,
  0x01, 0x00, 0x00, 0x00, 0x00, 0x00, 0x00, 0x00, 0x0a, 0x00, 0x00, 0x00,
  0x6c, 0x03, 0x00, 0x00, 0x14, 0x03, 0x00, 0x00, 0xbc, 0x02, 0x00, 0x00,
  0x80, 0x02, 0x00, 0x00, 0x28, 0x02, 0x00, 0x00, 0xd4, 0x01, 0x00, 0x00,
  0x88, 0x01, 0x00, 0x00, 0xf8, 0x00, 0x00, 0x00, 0x60, 0x00, 0x00, 0x00,
  0x04, 0x00, 0x00, 0x00, 0xd2, 0xfc, 0xff, 0xff, 0x00, 0x00, 0x00, 0x01,
  0x14, 0x00, 0x00, 0x00, 0x1c, 0x00, 0x00, 0x00, 0x1c, 0x00, 0x00, 0x00,
  0x0a, 0x00, 0x00, 0x00, 0x34, 0x00, 0x00, 0x00, 0x02, 0x00, 0x00, 0x00,
  0xff, 0xff, 0xff, 0xff, 0x01, 0x00, 0x00, 0x00, 0xbc, 0xfc, 0xff, 0xff,
  0x1b, 0x00, 0x00, 0x00, 0x53, 0x74, 0x61, 0x74, 0x65, 0x66, 0x75, 0x6c,
  0x50, 0x61, 0x72, 0x74, 0x69, 0x74, 0x69, 0x6f, 0x6e, 0x65, 0x64, 0x43,
  0x61, 0x6c, 0x6c, 0x5f, 0x31, 0x3a, 0x30, 0x00, 0x02, 0x00, 0x00, 0x00,
  0x01, 0x00, 0x00, 0x00, 0x01, 0x00, 0x00, 0x00, 0x2a, 0xfd, 0xff, 0xff,
  0x00, 0x00, 0x00, 0x01, 0x14, 0x00, 0x00, 0x00, 0x1c, 0x00, 0x00, 0x00,
  0x1c, 0x00, 0x00, 0x00, 0x09, 0x00, 0x00, 0x00, 0x70, 0x00, 0x00, 0x00,
  0x02, 0x00, 0x00, 0x00, 0xff, 0xff, 0xff, 0xff, 0x10, 0x00, 0x00, 0x00,
  0x14, 0xfd, 0xff, 0xff, 0x54, 0x00, 0x00, 0x00, 0x73, 0x65, 0x71, 0x75,
  0x65, 0x6e, 0x74, 0x69, 0x61, 0x6c, 0x5f, 0x31, 0x2f, 0x64, 0x65, 0x6e,
  0x73, 0x65, 0x5f, 0x31, 0x5f, 0x32, 0x2f, 0x4d, 0x61, 0x74, 0x4d, 0x75,
  0x6c, 0x3b, 0x73, 0x65, 0x71, 0x75, 0x65, 0x6e, 0x74, 0x69, 0x61, 0x6c,
  0x5f, 0x31, 0x2f, 0x64, 0x65, 0x6e, 0x73, 0x65, 0x5f, 0x31, 0x5f, 0x32,
  0x2f, 0x52, 0x65, 0x6c, 0x75, 0x3b, 0x73, 0x65, 0x71, 0x75, 0x65, 0x6e,
  0x74, 0x69, 0x61, 0x6c, 0x5f, 0x31, 0x2f, 0x64, 0x65, 0x6e, 0x73, 0x65,
  0x5f, 0x31, 0x5f, 0x32, 0x2f, 0x41, 0x64, 0x64, 0x00, 0x00, 0x00, 0x00,
  0x02, 0x00, 0x00, 0x00, 0x01, 0x00, 0x00, 0x00, 0x10, 0x00, 0x00, 0x00,
  0xbe, 0xfd, 0xff, 0xff, 0x00, 0x00, 0x00, 0x01, 0x14, 0x00, 0x00, 0x00,
  0x1c, 0x00, 0x00, 0x00, 0x1c, 0x00, 0x00, 0x00, 0x08, 0x00, 0x00, 0x00,
  0x68, 0x00, 0x00, 0x00, 0x02, 0x00, 0x00, 0x00, 0xff, 0xff, 0xff, 0xff,
  0x10, 0x00, 0x00, 0x00, 0xa8, 0xfd, 0xff, 0xff, 0x4e, 0x00, 0x00, 0x00,
  0x73, 0x65, 0x71, 0x75, 0x65, 0x6e, 0x74, 0x69, 0x61, 0x6c, 0x5f, 0x31,
  0x2f, 0x64, 0x65, 0x6e, 0x73, 0x65, 0x5f, 0x31, 0x2f, 0x4d, 0x61, 0x74,
  0x4d, 0x75, 0x6c, 0x3b, 0x73, 0x65, 0x71, 0x75, 0x65, 0x6e, 0x74, 0x69,
  0x61, 0x6c, 0x5f, 0x31, 0x2f, 0x64, 0x65, 0x6e, 0x73, 0x65, 0x5f, 0x31,
  0x2f, 0x52, 0x65, 0x6c, 0x75, 0x3b, 0x73, 0x65, 0x71, 0x75, 0x65, 0x6e,
  0x74, 0x69, 0x61, 0x6c, 0x5f, 0x31, 0x2f, 0x64, 0x65, 0x6e, 0x73, 0x65,
  0x5f, 0x31, 0x2f, 0x41, 0x64, 0x64, 0x00, 0x00, 0x02, 0x00, 0x00, 0x00,
  0x01, 0x00, 0x00, 0x00, 0x10, 0x00, 0x00, 0x00, 0x9e, 0xfe, 0xff, 0xff,
  0x00, 0x00, 0x00, 0x01, 0x10, 0x00, 0x00, 0x00, 0x10, 0x00, 0x00, 0x00,
  0x07, 0x00, 0x00, 0x00, 0x28, 0x00, 0x00, 0x00, 0x24, 0xfe, 0xff, 0xff,
  0x1b, 0x00, 0x00, 0x00, 0x73, 0x65, 0x71, 0x75, 0x65, 0x6e, 0x74, 0x69,
  0x61, 0x6c, 0x5f, 0x31, 0x2f, 0x64, 0x65, 0x6e, 0x73, 0x65, 0x5f, 0x31,
  0x2f, 0x4d, 0x61, 0x74, 0x4d, 0x75, 0x6c, 0x00, 0x02, 0x00, 0x00, 0x00,
  0x10, 0x00, 0x00, 0x00, 0x01, 0x00, 0x00, 0x00, 0xe6, 0xfe, 0xff, 0xff,
  0x00, 0x00, 0x00, 0x01, 0x10, 0x00, 0x00, 0x00, 0x10, 0x00, 0x00, 0x00,
  0x06, 0x00, 0x00, 0x00, 0x34, 0x00, 0x00, 0x00, 0x6c, 0xfe, 0xff, 0xff,
  0x27, 0x00, 0x00, 0x00, 0x73, 0x65, 0x71, 0x75, 0x65, 0x6e, 0x74, 0x69,
  0x61, 0x6c, 0x5f, 0x31, 0x2f, 0x64, 0x65, 0x6e, 0x73, 0x65, 0x5f, 0x31,
  0x2f, 0x41, 0x64, 0x64, 0x2f, 0x52, 0x65, 0x61, 0x64, 0x56, 0x61, 0x72,
  0x69, 0x61, 0x62, 0x6c, 0x65, 0x4f, 0x70, 0x00, 0x01, 0x00, 0x00, 0x00,
  0x10, 0x00, 0x00, 0x00, 0x36, 0xff, 0xff, 0xff, 0x00, 0x00, 0x00, 0x01,
  0x10, 0x00, 0x00, 0x00, 0x10, 0x00, 0x00, 0x00, 0x05, 0x00, 0x00, 0x00,
  0x38, 0x00, 0x00, 0x00, 0xbc, 0xfe, 0xff, 0xff, 0x29, 0x00, 0x00, 0x00,
  0x73, 0x65, 0x71, 0x75, 0x65, 0x6e, 0x74, 0x69, 0x61, 0x6c, 0x5f, 0x31,
  0x2f, 0x64, 0x65, 0x6e, 0x73, 0x65, 0x5f, 0x31, 0x5f, 0x32, 0x2f, 0x41,
  0x64, 0x64, 0x2f, 0x52, 0x65, 0x61, 0x64, 0x56, 0x61, 0x72, 0x69, 0x61,
  0x62, 0x6c, 0x65, 0x4f, 0x70, 0x00, 0x00, 0x00, 0x01, 0x00, 0x00, 0x00,
  0x10, 0x00, 0x00, 0x00, 0x8a, 0xff, 0xff, 0xff, 0x00, 0x00, 0x00, 0x01,
  0x10, 0x00, 0x00, 0x00, 0x10, 0x00, 0x00, 0x00, 0x04, 0x00, 0x00, 0x00,
  0x1c, 0x00, 0x00, 0x00, 0x10, 0xff, 0xff, 0xff, 0x0f, 0x00, 0x00, 0x00,
  0x61, 0x72, 0x69, 0x74, 0x68, 0x2e, 0x63, 0x6f, 0x6e, 0x73, 0x74, 0x61,
  0x6e, 0x74, 0x32, 0x00, 0x01, 0x00, 0x00, 0x00, 0x01, 0x00, 0x00, 0x00,
  0xc2, 0xff, 0xff, 0xff, 0x00, 0x00, 0x00, 0x01, 0x10, 0x00, 0x00, 0x00,
  0x10, 0x00, 0x00, 0x00, 0x03, 0x00, 0x00, 0x00, 0x1c, 0x00, 0x00, 0x00,
  0x48, 0xff, 0xff, 0xff, 0x0f, 0x00, 0x00, 0x00, 0x61, 0x72, 0x69, 0x74,
  0x68, 0x2e, 0x63, 0x6f, 0x6e, 0x73, 0x74, 0x61, 0x6e, 0x74, 0x31, 0x00,
  0x02, 0x00, 0x00, 0x00, 0x10, 0x00, 0x00, 0x00, 0x10, 0x00, 0x00, 0x00,
  0x00, 0x00, 0x16, 0x00, 0x18, 0x00, 0x14, 0x00, 0x00, 0x00, 0x10, 0x00,
  0x0c, 0x00, 0x08, 0x00, 0x00, 0x00, 0x00, 0x00, 0x00, 0x00, 0x07, 0x00,
  0x16, 0x00, 0x00, 0x00, 0x00, 0x00, 0x00, 0x01, 0x10, 0x00, 0x00, 0x00,
  0x10, 0x00, 0x00, 0x00, 0x02, 0x00, 0x00, 0x00, 0x1c, 0x00, 0x00, 0x00,
  0x9c, 0xff, 0xff, 0xff, 0x0e, 0x00, 0x00, 0x00, 0x61, 0x72, 0x69, 0x74,
  0x68, 0x2e, 0x63, 0x6f, 0x6e, 0x73, 0x74, 0x61, 0x6e, 0x74, 0x00, 0x00,
  0x02, 0x00, 0x00, 0x00, 0x01, 0x00, 0x00, 0x00, 0x10, 0x00, 0x00, 0x00,
  0x00, 0x00, 0x16, 0x00, 0x1c, 0x00, 0x18, 0x00, 0x00, 0x00, 0x14, 0x00,
  0x10, 0x00, 0x0c, 0x00, 0x00, 0x00, 0x00, 0x00, 0x08, 0x00, 0x07, 0x00,
  0x16, 0x00, 0x00, 0x00, 0x00, 0x00, 0x00, 0x01, 0x14, 0x00, 0x00, 0x00,
  0x20, 0x00, 0x00, 0x00, 0x20, 0x00, 0x00, 0x00, 0x01, 0x00, 0x00, 0x00,
  0x3c, 0x00, 0x00, 0x00, 0x02, 0x00, 0x00, 0x00, 0xff, 0xff, 0xff, 0xff,
  0x01, 0x00, 0x00, 0x00, 0x04, 0x00, 0x04, 0x00, 0x04, 0x00, 0x00, 0x00,
  0x1e, 0x00, 0x00, 0x00, 0x73, 0x65, 0x72, 0x76, 0x69, 0x6e, 0x67, 0x5f,
  0x64, 0x65, 0x66, 0x61, 0x75, 0x6c, 0x74, 0x5f, 0x6b, 0x65, 0x72, 0x61,
  0x73, 0x5f, 0x74, 0x65, 0x6e, 0x73, 0x6f, 0x72, 0x3a, 0x30, 0x00, 0x00,
  0x02, 0x00, 0x00, 0x00, 0x01, 0x00, 0x00, 0x00, 0x01, 0x00, 0x00, 0x00,
  0x01, 0x00, 0x00, 0x00, 0x10, 0x00, 0x00, 0x00, 0x0c, 0x00, 0x0c, 0x00,
  0x0b, 0x00, 0x00, 0x00, 0x00, 0x00, 0x04, 0x00, 0x0c, 0x00, 0x00, 0x00,
  0x09, 0x00, 0x00, 0x00, 0x00, 0x00, 0x00, 0x09};
const int g_model_len = 3140;
