unsigned char g_model[] = {
  0x20, 0x00, 0x00, 0x00, 0x54, 0x46, 0x4c, 0x33, 0x00, 0x00, 0x00, 0x00,
  0x14, 0x00, 0x20, 0x00, 0x1c, 0x00, 0x18, 0x00, 0x14, 0x00, 0x10, 0x00,
  0x0c, 0x00, 0x00, 0x00, 0x08, 0x00, 0x04, 0x00, 0x14, 0x00, 0x00, 0x00,
  0x1c, 0x00, 0x00, 0x00, 0x1c, 0x00, 0x00, 0x00, 0x9c, 0x00, 0x00, 0x00,
  0x24, 0x19, 0x00, 0x00, 0x34, 0x19, 0x00, 0x00, 0x18, 0x28, 0x00, 0x00,
  0x03, 0x00, 0x00, 0x00, 0x00, 0x00, 0x00, 0x00, 0x03, 0x00, 0x00, 0x00,
  0x5c, 0x00, 0x00, 0x00, 0x2c, 0x00, 0x00, 0x00, 0x04, 0x00, 0x00, 0x00,
  0xb8, 0xff, 0xff, 0xff, 0x16, 0x00, 0x00, 0x00, 0x04, 0x00, 0x00, 0x00,
  0x13, 0x00, 0x00, 0x00, 0x43, 0x4f, 0x4e, 0x56, 0x45, 0x52, 0x53, 0x49,
  0x4f, 0x4e, 0x5f, 0x4d, 0x45, 0x54, 0x41, 0x44, 0x41, 0x54, 0x41, 0x00,
  0xdc, 0xff, 0xff, 0xff, 0x15, 0x00, 0x00, 0x00, 0x04, 0x00, 0x00, 0x00,
  0x13, 0x00, 0x00, 0x00, 0x6d, 0x69, 0x6e, 0x5f, 0x72, 0x75, 0x6e, 0x74,
  0x69, 0x6d, 0x65, 0x5f, 0x76, 0x65, 0x72, 0x73, 0x69, 0x6f, 0x6e, 0x00,
  0x08, 0x00, 0x0c, 0x00, 0x08, 0x00, 0x04, 0x00, 0x08, 0x00, 0x00, 0x00,
  0x14, 0x00, 0x00, 0x00, 0x04, 0x00, 0x00, 0x00, 0x13, 0x00, 0x00, 0x00,
  0x6d, 0x69, 0x6e, 0x5f, 0x72, 0x75, 0x6e, 0x74, 0x69, 0x6d, 0x65, 0x5f,
  0x76, 0x65, 0x72, 0x73, 0x69, 0x6f, 0x6e, 0x00, 0x17, 0x00, 0x00, 0x00,
  0x84, 0x18, 0x00, 0x00, 0x7c, 0x18, 0x00, 0x00, 0x68, 0x18, 0x00, 0x00,
  0x54, 0x18, 0x00, 0x00, 0x40, 0x18, 0x00, 0x00, 0x2c, 0x18, 0x00, 0x00,
  0x24, 0x18, 0x00, 0x00, 0x0c, 0x18, 0x00, 0x00, 0xf4, 0x17, 0x00, 0x00,
  0x8c, 0x01, 0x00, 0x00, 0x50, 0x01, 0x00, 0x00, 0xdc, 0x00, 0x00, 0x00,
  0xd4, 0x00, 0x00, 0x00, 0xcc, 0x00, 0x00, 0x00, 0xc4, 0x00, 0x00, 0x00,
  0xbc, 0x00, 0x00, 0x00, 0xb4, 0x00, 0x00, 0x00, 0xac, 0x00, 0x00, 0x00,
  0xa4, 0x00, 0x00, 0x00, 0x9c, 0x00, 0x00, 0x00, 0x7c, 0x00, 0x00, 0x00,
  0x5c, 0x00, 0x00, 0x00, 0x04, 0x00, 0x00, 0x00, 0x3e, 0xe6, 0xff, 0xff,
  0x04, 0x00, 0x00, 0x00, 0x48, 0x00, 0x00, 0x00, 0x04, 0x00, 0x00, 0x00,
  0xdc, 0xff, 0xff, 0xff, 0x10, 0x00, 0x00, 0x00, 0x24, 0x00, 0x00, 0x00,
  0x00, 0x00, 0x06, 0x00, 0x08, 0x00, 0x04, 0x00, 0x06, 0x00, 0x00, 0x00,
  0x04, 0x00, 0x00, 0x00, 0x01, 0x00, 0x00, 0x00, 0xeb, 0x03, 0x00, 0x00,
  0x08, 0x00, 0x0c, 0x00, 0x08, 0x00, 0x04, 0x00, 0x08, 0x00, 0x00, 0x00,
  0x01, 0x00, 0x00, 0x00, 0x04, 0x00, 0x00, 0x00, 0x06, 0x00, 0x00, 0x00,
  0x32, 0x2e, 0x31, 0x36, 0x2e, 0x31, 0x00, 0x00, 0x92, 0xe6, 0xff, 0xff,
  0x04, 0x00, 0x00, 0x00, 0x10, 0x00, 0x00, 0x00, 0x00, 0x00, 0x00, 0x00,
  0x00, 0x00, 0x00, 0x00, 0x00, 0x00, 0x00, 0x00, 0x00, 0x00, 0x00, 0x00,
  0xae, 0xe6, 0xff, 0xff, 0x04, 0x00, 0x00, 0x00, 0x10, 0x00, 0x00, 0x00,
  0x31, 0x2e, 0x31, 0x34, 0x2e, 0x30, 0x00, 0x00, 0x00, 0x00, 0x00, 0x00,
  0x00, 0x00, 0x00, 0x00, 0x28, 0xda, 0xff, 0xff, 0x2c, 0xda, 0xff, 0xff,
  0x30, 0xda, 0xff, 0xff, 0x34, 0xda, 0xff, 0xff, 0x38, 0xda, 0xff, 0xff,
  0x3c, 0xda, 0xff, 0xff, 0x40, 0xda, 0xff, 0xff, 0x44, 0xda, 0xff, 0xff,
  0xea, 0xe6, 0xff, 0xff, 0x04, 0x00, 0x00, 0x00, 0x63, 0x00, 0x00, 0x00,
  0x06, 0xfd, 0x39, 0xcd, 0x3f, 0xe5, 0xc7, 0x7f, 0xbe, 0x7f, 0xee, 0x29,
  0x33, 0x3e, 0x3d, 0xc6, 0xbf, 0x00, 0xec, 0x02, 0x7f, 0xd5, 0xf5, 0x30,
  0xc1, 0xef, 0xf4, 0x81, 0xa4, 0x71, 0x35, 0x6a, 0x5c, 0x53, 0xc6, 0xbe,
  0xba, 0xdb, 0x7f, 0x0b, 0x33, 0xf4, 0x61, 0xfd, 0x95, 0x09, 0xe2, 0xda,
  0x62, 0x9c, 0xd5, 0xbe, 0x7f, 0xde, 0xc7, 0xfa, 0xff, 0xb9, 0xf8, 0x7f,
  0x22, 0x67, 0xcc, 0xe7, 0x81, 0x5c, 0x07, 0xbc, 0x52, 0x13, 0x1b, 0x5d,
  0x30, 0x55, 0x12, 0x25, 0x33, 0x91, 0x7f, 0xa4, 0xa0, 0x49, 0x8d, 0xa4,
  0x5f, 0x9d, 0x1c, 0x7f, 0x78, 0x05, 0xef, 0xfd, 0xb5, 0xb2, 0x27, 0x56,
  0xec, 0xda, 0x7f, 0x00, 0x5a, 0xe7, 0xff, 0xff, 0x04, 0x00, 0x00, 0x00,
  0x2c, 0x00, 0x00, 0x00, 0x3b, 0x08, 0x00, 0x00, 0xdc, 0x03, 0x00, 0x00,
  0xa9, 0x01, 0x00, 0x00, 0x5e, 0x07, 0x00, 0x00, 0xc1, 0x0a, 0x00, 0x00,
  0x95, 0xd9, 0xff, 0xff, 0xc0, 0x0a, 0x00, 0x00, 0xc9, 0x0c, 0x00, 0x00,
  0x5b, 0x0a, 0x00, 0x00, 0xc2, 0x00, 0x00, 0x00, 0xd2, 0x06, 0x00, 0x00,
  0x92, 0xe7, 0xff, 0xff, 0x04, 0x00, 0x00, 0x00, 0x58, 0x16, 0x00, 0x00,
  0xfa, 0x76, 0xff, 0xff, 0x0f, 0x06, 0xf8, 0x03, 0x04, 0x04, 0xfb, 0xf9,
  0x14, 0xfa, 0x01, 0xfc, 0x07, 0xfb, 0xfc, 0x02, 0x03, 0xff, 0x0b, 0x17,
  0xff, 0xff, 0xff, 0x01, 0x0d, 0xff, 0xfd, 0x03, 0x00, 0x00, 0x19, 0xf9,
  0x1c, 0x03, 0x04, 0x02, 0x18, 0xff, 0x03, 0xfe, 0x13, 0x34, 0xfc, 0xf3,
  0x03, 0xfd, 0xef, 0xf2, 0xf7, 0x02, 0x03, 0xec, 0x0e, 0xff, 0xf4, 0xe6,
  0x03, 0x0e, 0xce, 0x11, 0xfb, 0x08, 0x01, 0x0f, 0xff, 0xf2, 0xed, 0x02,
  0xf2, 0x08, 0xf4, 0xd1, 0xfc, 0xec, 0x17, 0xf9, 0xfa, 0xf5, 0xfe, 0x18,
  0xe6, 0xeb, 0xf5, 0x08, 0xf5, 0x14, 0x02, 0xfa, 0x09, 0x00, 0x16, 0xf1,
  0xef, 0x02, 0x03, 0xfd, 0x0d, 0xff, 0x02, 0xd1, 0xfa, 0xfd, 0xf7, 0x05,
  0x00, 0x03, 0x12, 0x16, 0x03, 0xff, 0xc0, 0xfd, 0xf2, 0xf1, 0x07, 0xfc,
  0x00, 0xe1, 0x13, 0xfd, 0xf5, 0xf8, 0x00, 0xe3, 0xf6, 0x15, 0xff, 0xfc,
  0x1f, 0x34, 0xfd, 0xfe, 0xda, 0x01, 0xf8, 0xeb, 0x0f, 0x0e, 0xf8, 0x08,
  0x00, 0x04, 0x03, 0x08, 0xff, 0xfe, 0x07, 0x00, 0x09, 0xfc, 0x01, 0xfb,
  0xff, 0xf6, 0xf6, 0x05, 0x05, 0x02, 0xfb, 0x05, 0xfa, 0x03, 0xe9, 0x01,
  0xff, 0xfb, 0x02, 0x01, 0x05, 0xf8, 0xf7, 0xff, 0xfb, 0x4b, 0x03, 0x19,
  0x03, 0x00, 0x06, 0x10, 0x00, 0xfd, 0xfa, 0xff, 0x04, 0xff, 0xfe, 0x0e,
  0x02, 0xff, 0xff, 0x0d, 0xfd, 0xfb, 0x0a, 0xff, 0x02, 0xec, 0x07, 0xfd,
  0x09, 0xee, 0x05, 0xf4, 0x05, 0xf1, 0xfd, 0xfe, 0xe6, 0xdb, 0xff, 0xfe,
  0xf7, 0xf4, 0x08, 0xf8, 0xf9, 0x06, 0x01, 0x07, 0x15, 0xfd, 0x03, 0x0c,
  0xfc, 0x0c, 0xfe, 0xe8, 0x00, 0x05, 0x1d, 0x09, 0xfd, 0x0c, 0x06, 0xfe,
  0x05, 0x02, 0x04, 0xf9, 0x01, 0x09, 0x03, 0xf8, 0xfc, 0x00, 0x0d, 0x10,
  0xfc, 0xe7, 0xb3, 0x00, 0xe5, 0xe6, 0xfb, 0xee, 0xf3, 0xf5, 0xff, 0x01,
  0xd3, 0x00, 0x04, 0xf8, 0xe7, 0xf8, 0xec, 0xf4, 0x03, 0x03, 0x00, 0x08,
  0xfd, 0xfe, 0x11, 0xfb, 0xfc, 0x01, 0xf7, 0xff, 0xfb, 0xff, 0x05, 0xfe,
  0x01, 0xfc, 0xfd, 0x04, 0x06, 0x05, 0xfe, 0x00, 0xfe, 0x03, 0x23, 0xff,
  0x07, 0xfa, 0xfc, 0x09, 0x09, 0x01, 0xfa, 0xff, 0xfd, 0xaf, 0xfd, 0xfa,
  0xff, 0xfe, 0xff, 0x00, 0xfa, 0xfb, 0xfc, 0x02, 0x1c, 0xff, 0xef, 0x08,
  0xff, 0x04, 0x01, 0x04, 0x00, 0x04, 0x06, 0xae, 0xff, 0x10, 0x07, 0x06,
  0x02, 0x02, 0xfe, 0xfe, 0xfe, 0x09, 0xfc, 0xf9, 0xfc, 0x01, 0x03, 0xf6,
  0xfb, 0x03, 0x06, 0xfd, 0x11, 0xfd, 0xf5, 0x19, 0x1b, 0x02, 0x10, 0x13,
  0x00, 0x01, 0x01, 0x02, 0xfd, 0xfd, 0x14, 0x0c, 0x01, 0x11, 0x0a, 0x0d,
  0x09, 0xfb, 0xeb, 0xdd, 0x02, 0xfd, 0xf0, 0x02, 0xf5, 0xef, 0x05, 0x15,
  0xfe, 0x05, 0x04, 0xfe, 0xf3, 0xf4, 0xf9, 0xfa, 0xfb, 0xf9, 0xf0, 0x00,
  0xf2, 0xb0, 0x0a, 0xfe, 0xe2, 0xfa, 0xf9, 0xf2, 0xfe, 0x09, 0xfb, 0xfb,
  0xc4, 0x04, 0x01, 0xe7, 0xf8, 0xfc, 0x04, 0x03, 0x0f, 0x01, 0x05, 0xda,
  0x03, 0x12, 0x14, 0xfa, 0x00, 0xfe, 0xf6, 0x08, 0xfc, 0xfd, 0x23, 0x02,
  0x08, 0xff, 0x04, 0x01, 0x05, 0x03, 0x07, 0x01, 0x05, 0x25, 0x07, 0x05,
  0x01, 0x02, 0xff, 0x00, 0xff, 0xfc, 0xfe, 0xfc, 0x9b, 0x00, 0xfd, 0x00,
  0x02, 0xff, 0xff, 0x01, 0xfe, 0xf9, 0x01, 0xac, 0xfe, 0x03, 0xf6, 0x02,
  0x05, 0x07, 0xfe, 0xfd, 0x00, 0x04, 0x89, 0xfc, 0xf2, 0xf7, 0x08, 0x05,
  0x00, 0x00, 0x08, 0x03, 0x01, 0x03, 0xfc, 0x16, 0xf2, 0xff, 0x0f, 0xfb,
  0x04, 0x03, 0xfd, 0xfc, 0x01, 0xfe, 0x1e, 0x11, 0x03, 0x0f, 0x16, 0x09,
  0xfd, 0x00, 0x1f, 0x01, 0x04, 0x3f, 0x22, 0xff, 0x13, 0x0a, 0x16, 0x21,
  0x02, 0xfe, 0xa5, 0x01, 0x0c, 0x01, 0x01, 0x03, 0xff, 0x06, 0x0e, 0x06,
  0xe2, 0xcf, 0x03, 0xf5, 0xf3, 0xfd, 0xeb, 0xf6, 0x0c, 0x07, 0xfc, 0x0d,
  0xce, 0x00, 0xf2, 0xe1, 0xfd, 0xf7, 0xf4, 0xf0, 0xff, 0x00, 0x08, 0xf4,
  0x08, 0x03, 0x01, 0xff, 0xf5, 0xff, 0x02, 0x0e, 0xf9, 0x18, 0x07, 0x01,
  0x1d, 0x01, 0xfd, 0x0a, 0x03, 0x02, 0x05, 0xfc, 0x02, 0x16, 0xff, 0x06,
  0x04, 0x00, 0x04, 0x00, 0x05, 0x06, 0x01, 0x04, 0xa9, 0xfd, 0xfd, 0x00,
  0x04, 0xfe, 0x00, 0xff, 0x05, 0x03, 0x02, 0xa2, 0xf6, 0xf6, 0xfd, 0x01,
  0xfd, 0xfe, 0x02, 0xff, 0x01, 0x00, 0xec, 0xfa, 0xf3, 0xf9, 0x05, 0x03,
  0x05, 0xfc, 0xfa, 0x07, 0x03, 0xee, 0x03, 0x03, 0x03, 0xfe, 0xfc, 0x02,
  0x00, 0x03, 0xfe, 0x08, 0xf9, 0xfc, 0x02, 0x02, 0x00, 0x00, 0x07, 0x07,
  0x08, 0x03, 0xff, 0x12, 0xff, 0x16, 0x0b, 0xfe, 0x0c, 0x0e, 0x04, 0xec,
  0x00, 0xfe, 0xfd, 0x03, 0x2d, 0x1b, 0xf9, 0x14, 0x0f, 0x1d, 0xf8, 0x04,
  0xfd, 0xae, 0xfa, 0x04, 0x07, 0x02, 0xfd, 0xf9, 0x0c, 0x1e, 0x05, 0xf4,
  0xd0, 0x00, 0xf4, 0xf5, 0xf9, 0xf5, 0xfb, 0xf1, 0x0d, 0xfa, 0x0b, 0xe8,
  0x06, 0x01, 0xf1, 0x00, 0xfb, 0xf3, 0xfa, 0x0b, 0xf8, 0x0d, 0xea, 0x03,
  0xf3, 0xe4, 0xfe, 0xf2, 0xf8, 0xfe, 0x08, 0x00, 0x12, 0xeb, 0x03, 0xee,
  0xfb, 0x00, 0xf7, 0x02, 0x05, 0x09, 0xfd, 0x05, 0x49, 0xfc, 0xfa, 0xf9,
  0x03, 0xff, 0x09, 0x05, 0x07, 0xfc, 0x00, 0x09, 0x01, 0x00, 0xff, 0x00,
  0x04, 0xff, 0xff, 0x05, 0x00, 0x00, 0x92, 0xfd, 0xf8, 0x01, 0xfc, 0x00,
  0xfd, 0x00, 0xfe, 0x00, 0xfc, 0xf6, 0x01, 0x02, 0xfd, 0x00, 0x01, 0x09,
  0xfe, 0x00, 0xff, 0x06, 0x04, 0xfe, 0x04, 0x05, 0xff, 0x07, 0x06, 0x01,
  0x01, 0x00, 0x02, 0xf8, 0xff, 0x0b, 0x02, 0x08, 0x09, 0x02, 0x08, 0x04,
  0xfb, 0x08, 0x35, 0xf7, 0x21, 0x1e, 0x02, 0x12, 0x12, 0x05, 0x20, 0xff,
  0x06, 0x17, 0xf8, 0x02, 0x11, 0x08, 0x17, 0x03, 0x19, 0x05, 0x02, 0xfb,
  0xd6, 0xfa, 0x05, 0x05, 0x02, 0x04, 0xfa, 0x01, 0x0b, 0xfe, 0xef, 0xdc,
  0x02, 0xfa, 0xe3, 0x02, 0xf9, 0xfc, 0xf5, 0x03, 0x01, 0xf7, 0xb6, 0x00,
  0xdf, 0xe5, 0x04, 0xf9, 0xfb, 0xf5, 0x0a, 0xff, 0x08, 0xc5, 0x05, 0xee,
  0xf2, 0x04, 0xf9, 0xfe, 0xff, 0x09, 0xfe, 0x0a, 0xbf, 0x03, 0xfe, 0x02,
  0xff, 0x00, 0xf7, 0xfc, 0x0b, 0x01, 0x09, 0xe1, 0x02, 0xff, 0xff, 0xfa,
  0x02, 0x01, 0x00, 0x05, 0x01, 0x01, 0xfa, 0x00, 0xfb, 0xf9, 0xff, 0x06,
  0x05, 0x01, 0x00, 0xfd, 0x01, 0x81, 0x05, 0xff, 0x00, 0xf4, 0xfe, 0x01,
  0xfa, 0xfd, 0x00, 0x08, 0xf2, 0x02, 0x01, 0xff, 0x02, 0x06, 0x06, 0x02,
  0xf8, 0x03, 0x04, 0xb1, 0x06, 0x05, 0x05, 0xfd, 0x00, 0xfe, 0x01, 0xfb,
  0x00, 0x07, 0x0d, 0xfe, 0x0d, 0x07, 0x02, 0xf8, 0xff, 0x00, 0xff, 0x05,
  0x06, 0x42, 0xfe, 0x04, 0x07, 0xff, 0x08, 0x0c, 0x06, 0x08, 0xff, 0x06,
  0xff, 0xfd, 0x0a, 0x14, 0x03, 0x08, 0x0c, 0x19, 0x15, 0x00, 0xff, 0x05,
  0xfa, 0x0e, 0x02, 0xfd, 0x03, 0xf9, 0x00, 0x0c, 0xfe, 0xf3, 0xc4, 0xff,
  0xff, 0xf3, 0xfc, 0xf3, 0xf4, 0xe7, 0x0c, 0xf7, 0x04, 0xf7, 0xff, 0xfe,
  0xef, 0x04, 0xfb, 0xf0, 0x03, 0xfa, 0xfa, 0x08, 0xfe, 0x07, 0xfe, 0xfe,
  0x00, 0xfa, 0x02, 0xfe, 0x0a, 0xff, 0xfd, 0xcb, 0x02, 0x1b, 0x00, 0x04,
  0x00, 0xfe, 0x04, 0x05, 0xff, 0x07, 0xf8, 0x03, 0xff, 0xfe, 0xff, 0x05,
  0x05, 0xfd, 0x02, 0xfe, 0x0a, 0x02, 0x01, 0xf6, 0x00, 0xfa, 0x08, 0x03,
  0x05, 0x01, 0x03, 0x01, 0xe6, 0xfd, 0xf7, 0x00, 0xff, 0x00, 0xff, 0xfe,
  0xfd, 0x02, 0x00, 0xe7, 0xfd, 0xf5, 0xfd, 0xfd, 0x00, 0x07, 0x05, 0xf8,
  0x05, 0xff, 0xaa, 0xfc, 0xfa, 0x02, 0x03, 0x05, 0x05, 0xfd, 0x04, 0xff,
  0x03, 0x1a, 0x01, 0xe9, 0xfb, 0xf9, 0x03, 0x01, 0xfa, 0xf9, 0x01, 0x05,
  0x3d, 0x03, 0x0c, 0x13, 0xfd, 0x08, 0x05, 0x09, 0xf0, 0x04, 0x0c, 0xfa,
  0xfb, 0x24, 0x21, 0xfc, 0x15, 0x07, 0x19, 0x07, 0xfb, 0xf4, 0xfc, 0xf9,
  0x0c, 0x04, 0xff, 0x09, 0xf6, 0x04, 0x0f, 0xfa, 0xf3, 0xbb, 0x05, 0xfa,
  0xf0, 0xfb, 0xf4, 0xfb, 0xed, 0x07, 0x03, 0x07, 0xcc, 0x03, 0xe7, 0xef,
  0xff, 0xfc, 0x00, 0xfb, 0x05, 0xf8, 0x0c, 0xce, 0x01, 0xe7, 0xf0, 0x02,
  0x01, 0xff, 0xfc, 0x10, 0xfe, 0xfd, 0xde, 0x05, 0x06, 0xf0, 0x05, 0xfe,
  0x11, 0x03, 0x13, 0x01, 0x05, 0xc2, 0xff, 0x05, 0x01, 0xff, 0x05, 0x03,
  0x03, 0x05, 0x03, 0x06, 0x25, 0x02, 0x02, 0x03, 0xfb, 0x01, 0x04, 0x04,
  0x08, 0x01, 0x04, 0xa3, 0xff, 0xf7, 0xff, 0xfb, 0xfd, 0xff, 0xff, 0x05,
  0xfc, 0x06, 0xe2, 0xfe, 0xfe, 0x00, 0x00, 0x03, 0x09, 0x04, 0xfd, 0x00,
  0x02, 0xc7, 0x01, 0x01, 0xfe, 0xfe, 0x06, 0x01, 0xff, 0xfd, 0x00, 0x07,
  0x17, 0xfe, 0xf1, 0x04, 0xfb, 0x03, 0x07, 0x05, 0xfa, 0x03, 0x00, 0x12,
  0xff, 0xff, 0x0e, 0xfa, 0x00, 0x09, 0x06, 0x0c, 0x00, 0x07, 0x29, 0xfc,
  0x1d, 0x15, 0x02, 0x10, 0x0f, 0x18, 0x03, 0x01, 0xfc, 0x3c, 0xfd, 0x0f,
  0xfa, 0x08, 0x04, 0xfc, 0x08, 0x19, 0xff, 0xf6, 0xcf, 0x02, 0xf8, 0xe8,
  0x04, 0xe8, 0xef, 0xeb, 0x0e, 0xff, 0x00, 0xd3, 0x03, 0xf2, 0xec, 0x03,
  0xf9, 0x02, 0x01, 0xfc, 0x01, 0xfd, 0x8e, 0x09, 0xfc, 0xf6, 0x06, 0xfe,
  0x03, 0x05, 0x09, 0xfc, 0xfd, 0xd3, 0x00, 0x06, 0xfe, 0x04, 0xf7, 0xfe,
  0xff, 0x10, 0x02, 0x08, 0x05, 0xfb, 0x02, 0x04, 0xf8, 0x05, 0x06, 0x03,
  0x09, 0xfe, 0x09, 0x0e, 0x05, 0x03, 0x01, 0xf8, 0x05, 0x09, 0xfe, 0xff,
  0x02, 0x02, 0x00, 0xfa, 0xfa, 0x06, 0xf8, 0xfa, 0x07, 0x06, 0xfd, 0xfc,
  0x00, 0xf6, 0xfb, 0x09, 0xff, 0xff, 0xff, 0x07, 0x06, 0xff, 0x00, 0x00,
  0x01, 0x01, 0x03, 0x01, 0xff, 0x05, 0x03, 0x00, 0xff, 0xfd, 0xf9, 0x00,
  0xfd, 0x06, 0x00, 0xf8, 0xf7, 0x0e, 0x01, 0x02, 0xfa, 0x05, 0x01, 0xfc,
  0x13, 0x16, 0x03, 0x08, 0x0c, 0x08, 0xf7, 0x09, 0x0f, 0x11, 0xf7, 0x18,
  0x18, 0x05, 0x13, 0x05, 0x1a, 0xf7, 0x02, 0xfe, 0xf9, 0xfa, 0x0b, 0xfa,
  0x02, 0xfb, 0x00, 0x02, 0x0f, 0xfc, 0xfd, 0xb6, 0x06, 0xfd, 0xf1, 0x03,
  0xf9, 0xef, 0xf3, 0x07, 0xf6, 0x05, 0xe5, 0x00, 0xf7, 0xf3, 0x03, 0xf0,
  0xf6, 0xfb, 0x06, 0xfc, 0x07, 0x02, 0x09, 0x01, 0xf0, 0x05, 0xff, 0x04,
  0xf7, 0x0f, 0xf7, 0x04, 0xd5, 0xfd, 0x0f, 0xfb, 0x09, 0x00, 0xfd, 0x02,
  0x11, 0xfc, 0x02, 0x07, 0xff, 0x04, 0x00, 0xfa, 0x05, 0x00, 0x00, 0x02,
  0xfb, 0x08, 0x07, 0xfe, 0xff, 0x00, 0xf5, 0xfe, 0x06, 0xfb, 0xff, 0x03,
  0x02, 0xf9, 0xfb, 0xf7, 0x05, 0xfc, 0xfd, 0x04, 0x04, 0xff, 0xfd, 0xfd,
  0xf9, 0xfa, 0x04, 0x05, 0xfb, 0x02, 0x06, 0x00, 0xf6, 0x01, 0x01, 0xff,
  0x05, 0xff, 0xfe, 0x04, 0xfc, 0x00, 0x01, 0x01, 0xfb, 0x04, 0x07, 0x00,
  0xfe, 0x03, 0x01, 0xfc, 0x03, 0x02, 0x01, 0x07, 0x0d, 0x23, 0xfa, 0x0f,
  0x04, 0x00, 0x12, 0x05, 0x04, 0xf7, 0x00, 0x07, 0x16, 0xf9, 0x26, 0x1b,
  0x00, 0x16, 0x0a, 0x18, 0x1f, 0x05, 0xfe, 0x06, 0xfb, 0xf7, 0x00, 0x03,
  0x07, 0x07, 0x00, 0x18, 0x01, 0xef, 0x02, 0xfb, 0xfa, 0xe8, 0x06, 0xf1,
  0xf7, 0xed, 0x0d, 0xfb, 0x01, 0x02, 0xfd, 0xf8, 0xeb, 0x02, 0xee, 0xfb,
  0xf4, 0x07, 0xff, 0x08, 0xfd, 0xfa, 0x0e, 0xee, 0x08, 0x04, 0x07, 0xf9,
  0xff, 0xf9, 0x04, 0x04, 0xfa, 0x05, 0xfe, 0x0e, 0x01, 0xff, 0x01, 0x0f,
  0xff, 0xff, 0xfe, 0xfd, 0xff, 0xff, 0xf7, 0xff, 0x05, 0x04, 0x04, 0xfd,
  0x06, 0xff, 0x00, 0x03, 0x05, 0xf6, 0xfc, 0x03, 0xfb, 0x03, 0xfb, 0x00,
  0xfc, 0x00, 0xf3, 0x02, 0xf9, 0x00, 0x09, 0x00, 0xfc, 0x00, 0x05, 0xfc,
  0xfd, 0x04, 0xfc, 0x01, 0x00, 0x07, 0x00, 0xf3, 0x02, 0x05, 0xfe, 0x00,
  0xfb, 0xff, 0xfe, 0x05, 0x02, 0x02, 0x04, 0x02, 0xfd, 0x02, 0xfe, 0x0f,
  0x02, 0xf6, 0x00, 0x08, 0x02, 0x00, 0x01, 0x09, 0x0a, 0x01, 0x18, 0x09,
  0xfb, 0x0e, 0x01, 0x0b, 0x0d, 0x01, 0xfe, 0x20, 0x00, 0x22, 0x2a, 0xfa,
  0x0e, 0x06, 0x1a, 0x1a, 0xfd, 0xf4, 0x0d, 0xf8, 0x0c, 0x03, 0x08, 0x06,
  0x01, 0x08, 0x1d, 0xfe, 0xef, 0x08, 0x01, 0xff, 0xf6, 0x01, 0xf4, 0xf2,
  0xf8, 0x05, 0x00, 0x02, 0xf5, 0xfb, 0xef, 0xe6, 0x05, 0xf3, 0xfb, 0x00,
  0x15, 0xfc, 0x08, 0x03, 0x02, 0xf5, 0x02, 0x0d, 0xf7, 0xfe, 0xfc, 0x0d,
  0xf9, 0x00, 0xff, 0xfe, 0x0e, 0x05, 0x0d, 0x01, 0x04, 0xff, 0x16, 0xf5,
  0x06, 0xff, 0xfe, 0x03, 0x01, 0xf8, 0xfc, 0x02, 0x03, 0x0a, 0x00, 0xff,
  0xfa, 0xfc, 0xfd, 0x02, 0xff, 0xf9, 0x04, 0xff, 0x06, 0x01, 0x0b, 0x02,
  0xfb, 0xf4, 0x01, 0xff, 0x03, 0xfd, 0xfc, 0xf9, 0x02, 0x02, 0x05, 0x00,
  0xfc, 0x02, 0xff, 0x06, 0x0a, 0x01, 0x00, 0x02, 0x04, 0x02, 0xfe, 0x06,
  0x00, 0xfb, 0xff, 0x07, 0x05, 0x02, 0xfc, 0x05, 0x05, 0xfd, 0xee, 0x01,
  0xf9, 0xf5, 0xf8, 0x00, 0xfc, 0x03, 0x06, 0x06, 0x04, 0x0c, 0x11, 0x01,
  0x07, 0x14, 0x0d, 0xf4, 0x06, 0x08, 0x0b, 0xfb, 0x18, 0x18, 0x00, 0x10,
  0x0c, 0x10, 0x21, 0xfd, 0x06, 0x04, 0xf7, 0x00, 0xff, 0x0a, 0x04, 0x01,
  0x07, 0x25, 0xfb, 0xe5, 0xf8, 0xfc, 0x09, 0xec, 0xff, 0xf1, 0xef, 0xfb,
  0x15, 0xfe, 0x01, 0x01, 0x03, 0xe4, 0xe6, 0xff, 0xee, 0xf6, 0xf8, 0x09,
  0xfd, 0x0b, 0xfc, 0x00, 0x09, 0x00, 0x08, 0xff, 0x06, 0x00, 0x0b, 0xff,
  0xfc, 0x03, 0xfa, 0x19, 0x02, 0x0e, 0xef, 0xfa, 0xfb, 0x12, 0xf9, 0x01,
  0x00, 0x01, 0xff, 0xfd, 0xf9, 0x04, 0x04, 0xff, 0x05, 0xfd, 0x01, 0x00,
  0x00, 0xf4, 0xfc, 0xfb, 0x00, 0x07, 0x00, 0x00, 0xff, 0xff, 0x02, 0xff,
  0x01, 0xff, 0xf9, 0x03, 0x04, 0x00, 0xfa, 0xfd, 0x05, 0x05, 0xfd, 0xf7,
  0x08, 0xff, 0xff, 0x07, 0xfe, 0xfe, 0xfd, 0x04, 0xf9, 0x04, 0x03, 0xfe,
  0x03, 0x07, 0x02, 0x03, 0xfd, 0x01, 0x06, 0xff, 0x07, 0x02, 0xfd, 0x00,
  0xfd, 0x06, 0x02, 0xfa, 0xff, 0x09, 0x11, 0xfe, 0x39, 0x1f, 0xfc, 0x12,
  0x0f, 0x0a, 0x15, 0x05, 0x09, 0x06, 0xfa, 0x22, 0x1a, 0xfe, 0x10, 0x13,
  0x0e, 0x21, 0xfe, 0xf0, 0x15, 0xf2, 0x07, 0x07, 0x05, 0x07, 0x05, 0x08,
  0x12, 0x00, 0xd3, 0x37, 0x04, 0xff, 0xd5, 0x0b, 0xf9, 0xf2, 0xf6, 0x11,
  0xfa, 0x00, 0xf7, 0x02, 0xf0, 0xdf, 0x05, 0xf5, 0xea, 0x00, 0xf0, 0x00,
  0xfe, 0xfb, 0xfc, 0xe1, 0xee, 0x08, 0xfb, 0x04, 0xfb, 0x1c, 0xfd, 0xfc,
  0xf4, 0xfe, 0x0b, 0xf1, 0x0c, 0xfe, 0x01, 0xfe, 0x17, 0xf7, 0x0a, 0x02,
  0x02, 0x00, 0x06, 0xfe, 0x02, 0xff, 0x04, 0x03, 0xfc, 0x05, 0x09, 0x02,
  0xfc, 0x00, 0xf9, 0xf9, 0x09, 0xfb, 0x03, 0x02, 0x03, 0xf8, 0x00, 0x03,
  0xff, 0xf8, 0x02, 0xfd, 0x01, 0xfe, 0xfc, 0x03, 0x02, 0x02, 0x05, 0x05,
  0xff, 0x08, 0x07, 0x00, 0xf8, 0x03, 0xfd, 0xfb, 0x04, 0x08, 0x07, 0x04,
  0x08, 0xfd, 0x04, 0x05, 0xfd, 0xfe, 0x05, 0x03, 0xfc, 0x06, 0xfc, 0x03,
  0x03, 0xfc, 0x00, 0x00, 0x04, 0x02, 0xfc, 0x2b, 0x15, 0x02, 0x0e, 0x14,
  0x06, 0xdd, 0x04, 0x08, 0xfa, 0xf8, 0x25, 0x10, 0x01, 0x14, 0x0f, 0x09,
  0x10, 0xfb, 0xf5, 0xed, 0xf6, 0x1c, 0xf9, 0x04, 0x0c, 0x0c, 0x04, 0x15,
  0xf1, 0xe4, 0xef, 0x00, 0x07, 0xf4, 0x06, 0xf9, 0xed, 0xf7, 0x1e, 0xfb,
  0x05, 0x05, 0x02, 0x01, 0xe8, 0xff, 0xef, 0xf4, 0xfc, 0xfe, 0x00, 0x03,
  0x13, 0x03, 0x07, 0xe8, 0x02, 0xfa, 0x0b, 0x01, 0x04, 0x03, 0x03, 0x15,
  0xf9, 0x0e, 0xf2, 0x0e, 0x03, 0x0d, 0x02, 0xfb, 0xf7, 0x00, 0x01, 0x03,
  0xff, 0xfa, 0xff, 0xfe, 0x0a, 0xfc, 0x08, 0xff, 0x05, 0x06, 0xfe, 0x00,
  0x01, 0xff, 0x08, 0x10, 0xff, 0x07, 0xff, 0x04, 0x01, 0x01, 0xf1, 0xfd,
  0xfb, 0x01, 0x0a, 0x03, 0x08, 0x05, 0x00, 0x02, 0xfc, 0x0c, 0x07, 0x00,
  0xfe, 0x0c, 0x03, 0xf6, 0xfd, 0x03, 0x0a, 0xfe, 0x0d, 0x04, 0xfd, 0x02,
  0x04, 0xfb, 0xf4, 0x03, 0xff, 0x07, 0xfd, 0xfd, 0x01, 0xfa, 0x07, 0xfc,
  0xfd, 0xf7, 0xfe, 0x07, 0x08, 0x01, 0x0a, 0x15, 0x05, 0x0e, 0xfe, 0x10,
  0xaa, 0x04, 0x19, 0x00, 0x03, 0x19, 0x1b, 0xff, 0x1c, 0x0e, 0x0f, 0xf4,
  0x02, 0x04, 0xfa, 0xf9, 0x0b, 0x0a, 0x09, 0x16, 0xfd, 0x08, 0x07, 0xfa,
  0xf8, 0xf2, 0x04, 0xf3, 0xfd, 0x05, 0xf3, 0xf3, 0xf7, 0x07, 0xf9, 0x04,
  0xf2, 0x01, 0xf9, 0xee, 0x00, 0xec, 0xe6, 0x04, 0xfd, 0x05, 0xfb, 0xfc,
  0x06, 0xec, 0x08, 0x05, 0xf4, 0x0a, 0xfc, 0x16, 0xfe, 0x07, 0x07, 0xf8,
  0x12, 0x03, 0x0a, 0xf9, 0xec, 0xfa, 0x1a, 0xf9, 0x07, 0x02, 0x09, 0xfb,
  0xff, 0xfb, 0x01, 0x02, 0x04, 0xff, 0x01, 0x04, 0x3b, 0x05, 0x0c, 0x02,
  0xfb, 0xf8, 0x0e, 0x02, 0x06, 0x06, 0x04, 0x29, 0x04, 0xf4, 0x04, 0xfc,
  0x02, 0x07, 0x00, 0x03, 0x00, 0x07, 0x27, 0xfd, 0xf8, 0x07, 0x05, 0x02,
  0x01, 0x03, 0xfb, 0x01, 0x05, 0xeb, 0x06, 0xf7, 0xfb, 0xfb, 0x01, 0xf4,
  0x02, 0xf4, 0xff, 0xfd, 0xe4, 0x02, 0x01, 0xfe, 0xff, 0x01, 0xff, 0x00,
  0xff, 0xff, 0x0b, 0xec, 0x00, 0x04, 0x19, 0x07, 0x09, 0x11, 0x09, 0xf2,
  0xf6, 0x08, 0xb5, 0xfa, 0x0e, 0x0d, 0xfd, 0x1f, 0x05, 0x11, 0x59, 0xf5,
  0xef, 0xe9, 0xf3, 0x09, 0xfc, 0x03, 0x12, 0xfd, 0xff, 0x2a, 0xf7, 0xea,
  0xd3, 0xfd, 0xc8, 0xe5, 0x07, 0xdc, 0xe7, 0xfb, 0x11, 0xff, 0xf8, 0xd4,
  0x03, 0xd7, 0xd4, 0x03, 0xda, 0x02, 0xfb, 0xe1, 0xfc, 0xf8, 0xfe, 0xfd,
  0xbb, 0xf6, 0x03, 0x01, 0xfe, 0x07, 0x34, 0xf5, 0x15, 0x22, 0xf8, 0x01,
  0xdf, 0x05, 0xfd, 0xf6, 0x01, 0x19, 0xf2, 0x0d, 0xf7, 0x06, 0xf6, 0x02,
  0xfb, 0x04, 0xff, 0x03, 0x02, 0xfb, 0xfb, 0x04, 0x09, 0xfc, 0xf5, 0xfa,
  0x03, 0xff, 0xff, 0x15, 0x03, 0x04, 0x00, 0xfe, 0xf3, 0x06, 0xfa, 0xf1,
  0xfe, 0xff, 0x02, 0xfd, 0x09, 0xfa, 0x02, 0xed, 0xfb, 0xfe, 0x0d, 0x17,
  0x05, 0x03, 0xff, 0x03, 0xf3, 0x00, 0xee, 0x0d, 0xfb, 0x10, 0xf9, 0x06,
  0xf6, 0x04, 0x12, 0xff, 0x04, 0xfc, 0x05, 0x00, 0x1d, 0xfe, 0xfd, 0xf0,
  0x05, 0x06, 0xf7, 0x00, 0x6b, 0x24, 0xff, 0x26, 0x29, 0x11, 0xff, 0xf9,
  0x12, 0xeb, 0xf7, 0x52, 0x1b, 0x01, 0x28, 0x17, 0x09, 0x03, 0x01, 0xf1,
  0x03, 0xfb, 0x09, 0xff, 0x03, 0x0d, 0xff, 0x05, 0x17, 0xfc, 0x06, 0xd5,
  0xfc, 0x15, 0xfb, 0x00, 0xdd, 0xef, 0xfe, 0x0a, 0xfe, 0x06, 0xdc, 0x00,
  0xde, 0xdf, 0x00, 0xf5, 0xf9, 0xf3, 0x2b, 0x02, 0x00, 0xe7, 0xfe, 0xfb,
  0xea, 0x02, 0xfe, 0x10, 0x00, 0x1b, 0x00, 0x07, 0xe4, 0xf9, 0x20, 0xb9,
  0x04, 0xf9, 0xdb, 0x0d, 0x3a, 0xf7, 0x05, 0xfc, 0x04, 0xfa, 0xf6, 0xfd,
  0xf5, 0x02, 0x04, 0x05, 0xfd, 0x06, 0x02, 0x02, 0xf6, 0xf9, 0xfa, 0x07,
  0x06, 0x02, 0x0d, 0x01, 0x08, 0xf8, 0x02, 0xfc, 0xfa, 0xfe, 0x03, 0xfb,
  0x01, 0x02, 0x01, 0x05, 0xfb, 0x02, 0xfd, 0xf3, 0x01, 0x08, 0x09, 0x07,
  0x03, 0x01, 0xf2, 0xff, 0x02, 0x00, 0xff, 0x04, 0xf6, 0x08, 0x00, 0xfc,
  0xff, 0x14, 0xfc, 0x00, 0xf6, 0xfd, 0xfe, 0x22, 0xff, 0x02, 0x0a, 0x01,
  0xfb, 0x02, 0xfd, 0xed, 0x08, 0x02, 0x11, 0x01, 0x0b, 0x0f, 0xff, 0xf7,
  0x11, 0x02, 0x10, 0x21, 0xfc, 0x2a, 0x07, 0x0d, 0x1a, 0x01, 0xd3, 0x0a,
  0xfe, 0x16, 0xed, 0xfd, 0x12, 0xfd, 0xfb, 0x1d, 0xff, 0xe1, 0xff, 0x00,
  0xf7, 0xcb, 0xfe, 0xe4, 0xe1, 0xf6, 0x15, 0xfc, 0x15, 0xfd, 0xfc, 0x09,
  0xe4, 0x02, 0x03, 0x09, 0xfb, 0x23, 0x00, 0xf8, 0x0c, 0xfe, 0xf3, 0xab,
  0x00, 0xf3, 0xfd, 0x01, 0xf3, 0x01, 0xf9, 0x0e, 0xf7, 0x16, 0xca, 0x05,
  0x1c, 0xeb, 0xff, 0x2f, 0xf7, 0xf9, 0x00, 0xff, 0xf7, 0xfe, 0xf6, 0x06,
  0x12, 0x07, 0x0e, 0xf8, 0x03, 0x06, 0x04, 0x17, 0x07, 0x00, 0x02, 0x14,
  0x00, 0x0c, 0x09, 0x0e, 0xfd, 0x00, 0xe4, 0x03, 0x00, 0x03, 0x0c, 0x02,
  0xf9, 0x03, 0x03, 0xfe, 0xfe, 0xef, 0xfe, 0xfe, 0x0a, 0x0c, 0x00, 0xfa,
  0x00, 0x08, 0x04, 0x06, 0x13, 0xfa, 0x00, 0xf8, 0x02, 0xfe, 0x03, 0x01,
  0xff, 0x03, 0xfc, 0xf7, 0x02, 0x00, 0x10, 0x0a, 0x03, 0x1f, 0x01, 0xfe,
  0x0b, 0x01, 0x09, 0x17, 0x01, 0x18, 0xf7, 0x09, 0x01, 0x01, 0xed, 0x0f,
  0x00, 0x2a, 0xfd, 0xff, 0x1d, 0x0a, 0x0a, 0x9d, 0xfe, 0xe7, 0x0e, 0xf8,
  0x21, 0x25, 0xfb, 0x08, 0x1e, 0xfa, 0x0a, 0xfe, 0xea, 0x01, 0x03, 0xff,
  0xe4, 0xff, 0xfb, 0xe4, 0xf3, 0x34, 0xfe, 0x2a, 0x00, 0xfc, 0xdd, 0xff,
  0xff, 0xec, 0xf6, 0xfd, 0xdb, 0xff, 0x03, 0x03, 0xfe, 0xea, 0xe9, 0xfa,
  0x08, 0xe7, 0xf4, 0x1a, 0x03, 0x0b, 0x04, 0xfa, 0x1f, 0xfb, 0x03, 0x08,
  0xfc, 0x06, 0x0b, 0xf3, 0xff, 0x89, 0x05, 0x06, 0xfc, 0x02, 0x02, 0xf2,
  0xff, 0x02, 0xfd, 0xfe, 0xe5, 0x00, 0xf6, 0x02, 0x05, 0x05, 0x05, 0x03,
  0xf8, 0x04, 0xf6, 0xeb, 0xfc, 0xff, 0xfe, 0x00, 0xf6, 0x01, 0x07, 0x0a,
  0xfc, 0x09, 0xeb, 0x08, 0xe2, 0xfa, 0x00, 0x06, 0xea, 0x05, 0x03, 0x02,
  0xf2, 0xd1, 0xff, 0x04, 0xf2, 0xfe, 0x16, 0x0d, 0x09, 0xfb, 0x00, 0x1b,
  0xeb, 0x04, 0x0a, 0x0c, 0x01, 0xfb, 0x33, 0xe9, 0x10, 0x05, 0xfd, 0xec,
  0x05, 0x10, 0x1d, 0xff, 0x0e, 0x00, 0x08, 0x2d, 0x01, 0x12, 0xf2, 0xfe,
  0x07, 0x12, 0xfd, 0xed, 0x16, 0x12, 0x03, 0xfa, 0x06, 0xed, 0xfa, 0xff,
  0xf8, 0x03, 0xe7, 0x19, 0x12, 0xfb, 0xfa, 0xfe, 0xf0, 0xf6, 0x02, 0x29,
  0xfe, 0x0b, 0x0a, 0xfd, 0xff, 0x02, 0xed, 0xe8, 0xf8, 0x02, 0x40, 0x05,
  0x0d, 0x13, 0xf8, 0xff, 0x00, 0x21, 0xe8, 0xfb, 0x01, 0x07, 0x02, 0x23,
  0x09, 0xea, 0xf9, 0x05, 0xe3, 0xc6, 0x05, 0x08, 0x2a, 0x07, 0x0a, 0x0e,
  0xe5, 0xfc, 0x01, 0xff, 0x00, 0x05, 0xfe, 0xff, 0xfe, 0xf8, 0xfb, 0x02,
  0x04, 0xfd, 0x00, 0x04, 0xfd, 0xff, 0x04, 0x05, 0x05, 0x02, 0xfc, 0xfe,
  0xfd, 0x02, 0x0c, 0xfd, 0xfd, 0xfe, 0x03, 0x05, 0xfb, 0xfc, 0x01, 0x01,
  0x03, 0xb0, 0x04, 0xe6, 0xff, 0x00, 0xfc, 0xe9, 0x04, 0xff, 0x02, 0x04,
  0xff, 0x06, 0x0d, 0xf2, 0x03, 0xfc, 0x01, 0xf7, 0x02, 0xff, 0xf6, 0x07,
  0x00, 0x11, 0xfa, 0xfe, 0xef, 0x17, 0xfb, 0x06, 0x05, 0x0c, 0xff, 0xfa,
  0x18, 0x1e, 0x00, 0x06, 0x09, 0x07, 0xf7, 0x00, 0x13, 0x04, 0xfb, 0xfc,
  0xe9, 0x00, 0x00, 0xfd, 0x04, 0xf2, 0xfa, 0x13, 0x06, 0x03, 0xe7, 0xf0,
  0x01, 0xf8, 0x01, 0x03, 0xf8, 0x09, 0x02, 0x05, 0xfd, 0xf6, 0xfd, 0xff,
  0x0c, 0x02, 0xfd, 0xf5, 0x04, 0x17, 0x4f, 0xf4, 0x1a, 0x19, 0x01, 0x0e,
  0x17, 0x01, 0xfc, 0x02, 0x2f, 0x08, 0x01, 0x07, 0x17, 0xfe, 0x0d, 0x11,
  0xf9, 0xfa, 0x05, 0xf9, 0xff, 0xfd, 0xf8, 0x06, 0x02, 0x03, 0x08, 0x04,
  0x06, 0x03, 0xfb, 0xfa, 0x00, 0xfd, 0x03, 0x02, 0x02, 0xfe, 0xfd, 0xfe,
  0x01, 0xff, 0xdc, 0x00, 0xfb, 0x06, 0xfa, 0xfb, 0xfe, 0x03, 0xfb, 0x00,
  0x03, 0x4b, 0x05, 0x0b, 0x04, 0xfb, 0x08, 0xff, 0x00, 0x00, 0x01, 0xfd,
  0xe7, 0x06, 0x10, 0xfc, 0x00, 0x01, 0xf3, 0x02, 0x01, 0x03, 0xff, 0x55,
  0xfc, 0xf5, 0xf8, 0x08, 0xfa, 0x02, 0x02, 0x03, 0x02, 0xf4, 0xfe, 0x05,
  0x06, 0xfc, 0x02, 0x07, 0x03, 0xfd, 0x03, 0x00, 0xec, 0xfb, 0xfe, 0xed,
  0xf0, 0x03, 0xf4, 0xf3, 0xfe, 0x03, 0xf8, 0xf3, 0x04, 0xf9, 0xe9, 0xee,
  0x05, 0xec, 0xf4, 0xed, 0xfe, 0xfa, 0x12, 0x1f, 0xfd, 0x06, 0x0f, 0x03,
  0x0f, 0x0f, 0x06, 0xef, 0x04, 0xfc, 0x06, 0xfb, 0x0a, 0x11, 0x00, 0x08,
  0x05, 0x01, 0x0e, 0x03, 0x05, 0x52, 0xfd, 0xff, 0x20, 0x00, 0x0c, 0x05,
  0x02, 0xfb, 0x02, 0xf9, 0x3e, 0xfa, 0x03, 0x1b, 0xfe, 0x0a, 0x01, 0xfd,
  0xf9, 0x08, 0xfb, 0x28, 0xfb, 0xef, 0xef, 0xfc, 0x06, 0x04, 0x01, 0xf7,
  0xfb, 0xf6, 0xd7, 0x04, 0xfc, 0xf9, 0xfd, 0xff, 0xfb, 0x02, 0x02, 0x03,
  0x00, 0xd8, 0x00, 0xff, 0x08, 0xff, 0xf8, 0xff, 0xff, 0xf8, 0x00, 0xfd,
  0x60, 0x09, 0x0d, 0x03, 0xff, 0x03, 0xfa, 0x00, 0x01, 0xfe, 0x01, 0x56,
  0xff, 0x08, 0x05, 0xfb, 0x00, 0xf5, 0x01, 0x04, 0xfd, 0xfb, 0x75, 0x02,
  0x10, 0x07, 0x04, 0x00, 0xfb, 0x02, 0xfe, 0x05, 0xf4, 0xfb, 0x04, 0xf0,
  0x03, 0x01, 0xf9, 0x06, 0x06, 0x05, 0x01, 0xfb, 0x00, 0xfe, 0xe5, 0xf5,
  0x02, 0xf5, 0xe1, 0xf8, 0x03, 0xfd, 0xee, 0xfc, 0x03, 0xbb, 0xd8, 0x01,
  0xec, 0xfa, 0xf1, 0xec, 0x01, 0x01, 0x5c, 0xfb, 0xfb, 0xf7, 0x06, 0x04,
  0x01, 0xf4, 0xf2, 0x07, 0x21, 0x30, 0xff, 0x10, 0x09, 0xfe, 0x15, 0x0d,
  0xff, 0xff, 0x04, 0xf7, 0x34, 0xfc, 0x06, 0x29, 0x00, 0x0a, 0x01, 0x1d,
  0xfc, 0x06, 0xec, 0x14, 0xf9, 0xfb, 0x01, 0x02, 0x01, 0x00, 0x04, 0xed,
  0xfe, 0xef, 0xee, 0xfe, 0xe9, 0x03, 0xfe, 0xfd, 0xfe, 0x02, 0xf1, 0xfb,
  0xf9, 0xe8, 0xff, 0xfb, 0x06, 0xfc, 0xfe, 0xf4, 0x05, 0xff, 0x00, 0x04,
  0x5e, 0xfa, 0x01, 0x00, 0x01, 0xfa, 0xf6, 0xfe, 0xf9, 0x01, 0xff, 0x54,
  0x00, 0x0b, 0x00, 0xfe, 0xfd, 0x05, 0x03, 0xff, 0x04, 0x01, 0x17, 0x02,
  0x06, 0x06, 0x04, 0xf8, 0xfb, 0xfd, 0x05, 0x00, 0xfd, 0x0c, 0x06, 0xf6,
  0xfe, 0xfe, 0xfb, 0xfc, 0x04, 0x04, 0x06, 0x05, 0x0f, 0x06, 0x02, 0xff,
  0xff, 0xfb, 0xfa, 0x00, 0x01, 0x02, 0xf7, 0xed, 0x07, 0xe3, 0xf2, 0xff,
  0xeb, 0xf6, 0xf7, 0x0f, 0xf8, 0xf7, 0xff, 0x08, 0xd1, 0xea, 0x00, 0xe8,
  0xef, 0xe4, 0x04, 0xfa, 0xfd, 0x5a, 0xfa, 0xfd, 0xfd, 0x05, 0x02, 0x0b,
  0xf4, 0xe3, 0x07, 0x0e, 0x37, 0xf5, 0x0e, 0x0c, 0xfb, 0x0b, 0x07, 0x0d,
  0xf3, 0xfe, 0xfb, 0x18, 0xfe, 0x04, 0x0d, 0x03, 0x04, 0x08, 0x0e, 0xf4,
  0x01, 0xf2, 0x0f, 0xf7, 0x07, 0x19, 0xfd, 0x14, 0x08, 0x05, 0xf2, 0x07,
  0xf7, 0x18, 0x00, 0x10, 0x00, 0x01, 0xff, 0xff, 0x05, 0xf7, 0x04, 0xfa,
  0xb1, 0xfc, 0xff, 0xff, 0xfe, 0xf9, 0x02, 0x06, 0xfd, 0xfe, 0xfb, 0xfb,
  0x02, 0x05, 0xff, 0x01, 0x04, 0xf6, 0xfe, 0xfe, 0x02, 0xfd, 0x76, 0x09,
  0x07, 0x04, 0x01, 0xfe, 0xfe, 0x03, 0x05, 0x03, 0xfc, 0x03, 0x06, 0xf8,
  0xff, 0xfd, 0xfb, 0xff, 0xfe, 0x09, 0x01, 0xff, 0xfb, 0x07, 0x01, 0xfb,
  0x00, 0x04, 0xfa, 0x00, 0xfd, 0x01, 0x09, 0x0a, 0x08, 0xf6, 0xfd, 0x03,
  0xfe, 0xfb, 0x03, 0x00, 0xfc, 0xf5, 0xd2, 0xfd, 0xd8, 0xea, 0x02, 0xe8,
  0xf1, 0xf9, 0xe1, 0xfd, 0xf7, 0xe6, 0x03, 0xf9, 0xf2, 0x05, 0xf1, 0xf5,
  0xe1, 0xfa, 0x01, 0x01, 0x2b, 0x06, 0xf3, 0xf5, 0x03, 0xfb, 0x06, 0xf5,
  0xf9, 0x04, 0x0c, 0x28, 0xfe, 0x0b, 0x1d, 0x02, 0x0b, 0x08, 0x09, 0xfd,
  0x04, 0x13, 0x45, 0xfd, 0x21, 0x1f, 0x02, 0x0b, 0x08, 0x05, 0xfa, 0x00,
  0xff, 0x3c, 0xf8, 0x13, 0x10, 0x01, 0x01, 0x03, 0xfe, 0x01, 0x06, 0xf9,
  0x36, 0xff, 0xfb, 0xf7, 0xff, 0x01, 0xfd, 0x05, 0xf7, 0x07, 0x02, 0x18,
  0x04, 0xfd, 0x01, 0x02, 0xfe, 0x00, 0x01, 0x04, 0xfe, 0xfb, 0x11, 0xff,
  0xfe, 0xfd, 0x02, 0x01, 0xfe, 0x01, 0x02, 0xfc, 0xfa, 0x75, 0x08, 0x07,
  0xfe, 0xfe, 0xff, 0x00, 0xfb, 0x01, 0x01, 0x01, 0x12, 0x07, 0x0c, 0x02,
  0x04, 0xff, 0xfc, 0xfb, 0x01, 0x03, 0xfe, 0x59, 0x06, 0xfa, 0xfc, 0x04,
  0xfa, 0xfe, 0xfe, 0x05, 0x03, 0xfe, 0xf7, 0x01, 0xf0, 0xf4, 0x04, 0xfe,
  0xfa, 0xfd, 0xfd, 0xfc, 0xfc, 0xc7, 0x02, 0xf4, 0xf3, 0xfb, 0xf4, 0xf5,
  0xf9, 0xfe, 0xfd, 0xf6, 0x07, 0x04, 0xf5, 0xf6, 0x05, 0xfc, 0xf8, 0xe4,
  0xef, 0xfb, 0x03, 0xf2, 0x07, 0xf1, 0xff, 0xfd, 0xff, 0x03, 0xfb, 0xf7,
  0x01, 0x07, 0x38, 0xfb, 0xf8, 0x12, 0xfa, 0x0c, 0x06, 0x0d, 0xfb, 0x00,
  0xfc, 0x05, 0x01, 0x03, 0x06, 0x00, 0x00, 0x04, 0xfd, 0x04, 0xfc, 0xf8,
  0x04, 0xff, 0x07, 0xff, 0xfb, 0x11, 0x0a, 0x05, 0xf6, 0x08, 0x00, 0x38,
  0x05, 0xed, 0xf7, 0x00, 0xfe, 0x01, 0x02, 0xef, 0x02, 0xfe, 0x13, 0x02,
  0xfb, 0xff, 0x04, 0xfc, 0x06, 0xfd, 0x01, 0xfe, 0xfc, 0x04, 0xfe, 0x01,
  0x01, 0xfe, 0xfb, 0xfe, 0x06, 0xfa, 0x01, 0xfa, 0x19, 0x03, 0x07, 0x03,
  0x07, 0xfe, 0xff, 0xff, 0x04, 0xff, 0xfd, 0x15, 0x04, 0x07, 0xfc, 0x00,
  0xf9, 0xfa, 0xfe, 0x01, 0x02, 0xfe, 0x58, 0x00, 0x07, 0xfc, 0x05, 0x00,
  0x02, 0xfc, 0xef, 0x00, 0xff, 0xed, 0x05, 0x16, 0x04, 0x01, 0xfc, 0xfc,
  0xfa, 0x01, 0xfd, 0xfe, 0xc7, 0x03, 0xf6, 0xea, 0xfc, 0xfc, 0xf6, 0xf5,
  0x0f, 0xfd, 0xfe, 0x05, 0x05, 0xe3, 0xe1, 0xfd, 0xec, 0xf9, 0xe8, 0xfb,
  0xf9, 0x07, 0xfe, 0x0b, 0xf3, 0xfb, 0x00, 0x03, 0x05, 0xfa, 0xf3, 0xfe,
  0x02, 0x42, 0x00, 0x07, 0x17, 0xf9, 0x14, 0x02, 0x0c, 0xf4, 0x08, 0x04,
  0x36, 0x03, 0x12, 0x07, 0xfa, 0x02, 0x05, 0x05, 0xfc, 0xfe, 0xfe, 0x33,
  0xf9, 0x1b, 0x14, 0xfa, 0x06, 0x08, 0x02, 0xf7, 0x04, 0x03, 0x1f, 0x06,
  0xf3, 0x0f, 0xfe, 0x08, 0xf0, 0x06, 0xf8, 0x03, 0x00, 0x44, 0x00, 0xfc,
  0xff, 0x08, 0x00, 0xfb, 0x00, 0xfa, 0x01, 0xf4, 0xda, 0x01, 0x01, 0x04,
  0x0c, 0xfd, 0xfd, 0x02, 0x03, 0xfc, 0xff, 0x63, 0x02, 0x0a, 0x00, 0x07,
  0x05, 0xf7, 0xff, 0x07, 0x06, 0x02, 0x22, 0x04, 0x0b, 0xfb, 0x00, 0xf8,
  0xfc, 0xfe, 0x05, 0xff, 0xfc, 0x3e, 0x05, 0x01, 0xfa, 0x05, 0x02, 0x08,
  0x00, 0x01, 0xfe, 0xfe, 0xea, 0x00, 0x0e, 0xff, 0x04, 0x00, 0x05, 0xfb,
  0x07, 0xfd, 0x02, 0xf5, 0xfe, 0xfb, 0xe9, 0x02, 0xfc, 0xf3, 0xf7, 0xf1,
  0xff, 0xf8, 0xd4, 0xff, 0xde, 0xea, 0x00, 0xe9, 0xf4, 0xf0, 0xfc, 0xfc,
  0x00, 0xcd, 0x05, 0xf2, 0xff, 0x01, 0x01, 0xfa, 0x03, 0xe6, 0x02, 0x0b,
  0x36, 0x00, 0x06, 0x12, 0xfc, 0x0a, 0x08, 0x0e, 0xf0, 0x0a, 0xf9, 0x24,
  0x01, 0x0c, 0x16, 0xf7, 0xfe, 0x07, 0xf9, 0xfc, 0x07, 0x04, 0x75, 0x01,
  0x03, 0xfd, 0xf7, 0x07, 0x06, 0x08, 0xf7, 0x03, 0x07, 0x2c, 0x05, 0x00,
  0x01, 0xf9, 0x04, 0x00, 0x03, 0xf7, 0x0a, 0x01, 0xee, 0xfb, 0xfb, 0x05,
  0x06, 0xff, 0xfd, 0x02, 0x02, 0xfe, 0xff, 0xf0, 0x05, 0x00, 0xfc, 0x05,
  0xfe, 0xf9, 0xfd, 0x00, 0x02, 0xfc, 0x03, 0x02, 0x03, 0x08, 0x01, 0xfc,
  0xfe, 0x07, 0x02, 0x01, 0xfd, 0x08, 0x01, 0xf6, 0x01, 0x0a, 0xfe, 0xf7,
  0x00, 0x08, 0xfe, 0xfa, 0xfa, 0x03, 0x06, 0x00, 0x02, 0x01, 0xf8, 0xff,
  0x05, 0xfc, 0xfb, 0x01, 0xfd, 0xf9, 0x06, 0xff, 0x01, 0xfa, 0x01, 0xfe,
  0xfc, 0xff, 0xf4, 0xfa, 0xf1, 0xf3, 0x06, 0x01, 0xff, 0xf9, 0x09, 0x01,
  0xf8, 0xec, 0x01, 0xe7, 0xe6, 0xff, 0xf1, 0xf5, 0xf0, 0x0a, 0xff, 0x04,
  0x04, 0x08, 0xfb, 0x04, 0xfd, 0xfe, 0x05, 0xf8, 0xec, 0x03, 0x06, 0x49,
  0x02, 0x02, 0x14, 0xf5, 0x0c, 0x0b, 0x07, 0xff, 0x05, 0x03, 0x1c, 0xff,
  0x09, 0x18, 0xf9, 0x07, 0x0b, 0xfb, 0xfc, 0x07, 0xfe, 0x06, 0x03, 0x07,
  0x07, 0xf3, 0x01, 0xfb, 0x06, 0xfc, 0x02, 0x05, 0x24, 0x05, 0xf3, 0x05,
  0xfb, 0x07, 0x04, 0x09, 0xef, 0x0a, 0xff, 0x00, 0x04, 0x02, 0x03, 0x07,
  0x02, 0x00, 0xff, 0xfc, 0xfe, 0xfc, 0x02, 0xfb, 0xfe, 0x03, 0x0a, 0xf9,
  0xfb, 0xfd, 0xfa, 0xff, 0xfc, 0x0e, 0x02, 0x0a, 0x02, 0x0b, 0x02, 0x03,
  0x02, 0x05, 0x02, 0xfa, 0x01, 0xff, 0xfc, 0xfa, 0x00, 0xfa, 0xfb, 0xfc,
  0x04, 0xfe, 0xfc, 0x00, 0x04, 0xf9, 0xf8, 0x07, 0xfe, 0xfd, 0x05, 0x05,
  0xfd, 0xfe, 0xfe, 0x01, 0x0d, 0xfc, 0x0b, 0x0a, 0x05, 0xfe, 0x05, 0xfe,
  0xf8, 0xe1, 0xfa, 0xf8, 0xf3, 0x01, 0xec, 0xf2, 0xf9, 0x05, 0xfd, 0xfa,
  0xe9, 0x01, 0xd2, 0xdf, 0x03, 0xf5, 0xf4, 0xeb, 0xe1, 0x03, 0xff, 0x03,
  0x0a, 0x01, 0x07, 0xf8, 0xf9, 0x00, 0xfc, 0xe6, 0x05, 0x17, 0x06, 0xf9,
  0x05, 0x11, 0xfd, 0x09, 0x07, 0x10, 0xf4, 0x06, 0x01, 0xfb, 0xfc, 0x07,
  0x13, 0xfa, 0x10, 0x09, 0x01, 0xf2, 0x05, 0xfa, 0x01, 0xfc, 0xe8, 0x16,
  0xf6, 0x02, 0xfa, 0xfb, 0xfb, 0xff, 0xff, 0x01, 0xfd, 0x01, 0x06, 0xfb,
  0xf5, 0x08, 0x05, 0xf1, 0x05, 0xf7, 0x01, 0xfd, 0x04, 0xfd, 0x0e, 0xfd,
  0xfb, 0xfe, 0xfe, 0xfe, 0xfd, 0xff, 0xff, 0xfc, 0x04, 0x0b, 0xfa, 0xfa,
  0xfd, 0xfd, 0xf9, 0xf9, 0x06, 0xff, 0x0c, 0x04, 0x05, 0x02, 0xfd, 0xfe,
  0xfa, 0x01, 0x00, 0x02, 0xfc, 0xfe, 0x01, 0x09, 0xf9, 0xff, 0xfd, 0x08,
  0xfc, 0x00, 0xfe, 0xff, 0x06, 0xfd, 0x01, 0xfa, 0xfd, 0x00, 0xfd, 0x02,
  0xfd, 0xfa, 0x00, 0xf3, 0xff, 0x01, 0xfc, 0xff, 0xfb, 0x00, 0xf8, 0x00,
  0xf2, 0x03, 0xe5, 0xf7, 0xfb, 0xfc, 0x00, 0xfe, 0xee, 0xff, 0xfa, 0xdf,
  0x05, 0xd4, 0xd2, 0xfc, 0xf3, 0xfa, 0xe4, 0xe3, 0xfd, 0x01, 0xed, 0x09,
  0xfa, 0xfb, 0xfb, 0x00, 0x00, 0x00, 0xe0, 0x06, 0x10, 0xfd, 0xfb, 0x09,
  0x0b, 0xfb, 0x10, 0x0a, 0x09, 0xf7, 0x04, 0xf9, 0x01, 0xfc, 0x0d, 0x1d,
  0xff, 0x0e, 0x08, 0x02, 0xf2, 0x00, 0x01, 0xff, 0x00, 0x0b, 0x07, 0xf5,
  0x02, 0x0c, 0xfa, 0xee, 0x01, 0xfe, 0x01, 0x04, 0xf2, 0x02, 0xf4, 0x05,
  0xf2, 0x02, 0xf1, 0x09, 0x00, 0xff, 0xfe, 0xfc, 0x03, 0x06, 0xf7, 0xfc,
  0x05, 0x00, 0xff, 0xf9, 0xfd, 0xf9, 0xf7, 0xfe, 0x08, 0xfc, 0xf8, 0xfd,
  0xf9, 0x02, 0x00, 0x01, 0xfd, 0x0b, 0x01, 0x0a, 0x01, 0x02, 0xfb, 0xfe,
  0x02, 0xff, 0x04, 0x04, 0xf9, 0xfc, 0xfd, 0x00, 0xfc, 0xfe, 0x0b, 0xff,
  0xfe, 0xf8, 0xfe, 0xfd, 0x01, 0x02, 0xfb, 0x03, 0xfe, 0x01, 0xfc, 0x00,
  0xf8, 0xff, 0x09, 0xf3, 0x02, 0x07, 0xff, 0xfd, 0x02, 0x01, 0x02, 0xf7,
  0x09, 0xfd, 0xf0, 0x03, 0xf8, 0xf8, 0xf4, 0x04, 0x00, 0xfb, 0xf7, 0x04,
  0xea, 0xe9, 0x00, 0xe8, 0xf1, 0xf7, 0xe9, 0xff, 0xfc, 0xfd, 0x08, 0xff,
  0xf9, 0xfd, 0xfb, 0xfb, 0xfe, 0xdc, 0x04, 0x14, 0x09, 0xfc, 0xfd, 0x16,
  0xf6, 0x15, 0x07, 0x09, 0xe3, 0x09, 0xfc, 0x07, 0x02, 0x1c, 0x16, 0xfa,
  0x0a, 0x04, 0xfe, 0xf9, 0x01, 0xfc, 0x05, 0x02, 0xfa, 0x09, 0xf1, 0x03,
  0xf3, 0x04, 0xf1, 0x02, 0xfe, 0x04, 0x03, 0xe6, 0xfc, 0xf7, 0x0b, 0x08,
  0xfe, 0xef, 0x0d, 0xf5, 0xf7, 0x03, 0x01, 0x03, 0x05, 0x03, 0xfd, 0xfe,
  0x00, 0xfe, 0xf9, 0xf8, 0xff, 0x05, 0x09, 0x07, 0xff, 0xfa, 0xfe, 0x00,
  0xfe, 0xf4, 0x00, 0x04, 0xfb, 0xfb, 0x07, 0xfc, 0xfc, 0x00, 0x07, 0xff,
  0xfe, 0xf7, 0xff, 0x00, 0x01, 0x04, 0xfb, 0xfb, 0xf9, 0x06, 0xfd, 0xfd,
  0xff, 0x05, 0xfb, 0xf6, 0x04, 0xfe, 0x03, 0x05, 0x06, 0xfe, 0x04, 0xf5,
  0x04, 0xf6, 0x03, 0x02, 0x02, 0x00, 0x05, 0x03, 0x00, 0xfc, 0xf3, 0xff,
  0xc3, 0xe0, 0xfe, 0xf2, 0xee, 0xf0, 0xee, 0x02, 0xf2, 0xf8, 0x02, 0xdc,
  0xde, 0xf9, 0xf0, 0xe9, 0xec, 0xe6, 0xfe, 0x0c, 0xf4, 0x04, 0x01, 0xf8,
  0xfb, 0xfd, 0x05, 0x00, 0xf6, 0x05, 0x2a, 0xcf, 0x00, 0x00, 0x25, 0xfe,
  0x0f, 0x0c, 0x0b, 0xe8, 0x08, 0xfd, 0x02, 0xff, 0x06, 0x23, 0xfe, 0x12,
  0x0d, 0x05, 0x06, 0x02, 0xfe, 0x08, 0xfe, 0x18, 0x14, 0xf5, 0x04, 0xfc,
  0x03, 0xe3, 0x08, 0x0d, 0x10, 0x0a, 0xfa, 0x11, 0xf8, 0x02, 0x03, 0x02,
  0xe7, 0x05, 0xfd, 0x00, 0x04, 0x05, 0xfb, 0x09, 0x03, 0xf9, 0xfe, 0xfd,
  0xfe, 0x02, 0x00, 0xfc, 0x09, 0xfc, 0x09, 0x01, 0xf9, 0xfa, 0xfa, 0x02,
  0xff, 0x01, 0x02, 0x0a, 0xf9, 0xfd, 0xfe, 0xfc, 0x00, 0x03, 0x01, 0xfc,
  0x03, 0x04, 0xfd, 0xff, 0x00, 0xff, 0x01, 0xfd, 0x06, 0x04, 0xf7, 0x06,
  0x01, 0xf6, 0x02, 0x06, 0x01, 0xfd, 0xfd, 0x00, 0xff, 0x02, 0x01, 0x02,
  0x05, 0x00, 0x02, 0xf1, 0xf3, 0xf9, 0x04, 0x02, 0xfb, 0xfb, 0x03, 0xdb,
  0xe7, 0x06, 0xea, 0xe6, 0xf9, 0x1c, 0x01, 0xed, 0x13, 0x05, 0xda, 0xe6,
  0xfa, 0xe9, 0xf5, 0xee, 0xf6, 0x00, 0x0b, 0x12, 0x02, 0xe7, 0x02, 0xf9,
  0xf0, 0xfb, 0x02, 0xe7, 0x09, 0x10, 0x09, 0xfe, 0xf3, 0x11, 0xfe, 0x08,
  0x09, 0x08, 0xe9, 0x09, 0xfc, 0xfa, 0x00, 0x04, 0x20, 0xf6, 0x0f, 0x08,
  0x05, 0xfc, 0xff, 0xff, 0xe7, 0x04, 0xf8, 0x22, 0xfa, 0xfe, 0xf4, 0x03,
  0xf9, 0x01, 0x02, 0xe4, 0x02, 0xed, 0x06, 0xfd, 0xff, 0xf7, 0x08, 0x04,
  0x0e, 0xfd, 0xfd, 0x03, 0xf8, 0x00, 0x05, 0x03, 0xf1, 0xfa, 0xfe, 0xfb,
  0xf8, 0x05, 0xfd, 0xfd, 0xfc, 0x04, 0xff, 0xf9, 0xf9, 0xfb, 0x01, 0xf8,
  0x03, 0x01, 0x0a, 0x06, 0xfe, 0x08, 0xfc, 0xfe, 0x03, 0x07, 0xfb, 0xfe,
  0xff, 0xe9, 0xf5, 0x00, 0xf8, 0xf9, 0xf9, 0x0a, 0xff, 0xfd, 0xfb, 0xfc,
  0xfc, 0x01, 0xfe, 0xf7, 0xf2, 0xf8, 0x07, 0xff, 0xf9, 0xfe, 0xfc, 0x01,
  0xf8, 0xfd, 0x06, 0x05, 0xfe, 0x0c, 0xff, 0xfc, 0x02, 0x03, 0xf1, 0xe9,
  0x00, 0xe8, 0xfd, 0xf7, 0x57, 0xfd, 0xee, 0x02, 0x09, 0xeb, 0xe8, 0xf8,
  0xdd, 0xef, 0xf2, 0x02, 0xfb, 0x02, 0x08, 0x0b, 0xfc, 0xf9, 0xfd, 0xed,
  0x08, 0xf8, 0xed, 0x05, 0xff, 0x06, 0x00, 0x0e, 0x02, 0xfe, 0x01, 0x0f,
  0x10, 0x03, 0x0a, 0x05, 0x0a, 0x00, 0x07, 0x0f, 0xfa, 0x11, 0x17, 0x02,
  0x0e, 0x03, 0x02, 0x0c, 0x06, 0x11, 0xf5, 0xfa, 0x07, 0xfc, 0xfe, 0xe4,
  0x03, 0xf8, 0xfd, 0x03, 0xf9, 0x00, 0xfe, 0xfe, 0x19, 0x05, 0xe8, 0x08,
  0xfb, 0xfc, 0x01, 0x08, 0xfe, 0x03, 0xfb, 0xf6, 0x02, 0x00, 0xff, 0x02,
  0xbc, 0x05, 0xfa, 0x06, 0xff, 0x06, 0xfb, 0x03, 0x03, 0x06, 0xf9, 0xd0,
  0xfc, 0x07, 0x03, 0xfe, 0x06, 0x00, 0xfd, 0x03, 0xff, 0xfe, 0xd0, 0xfd,
  0xff, 0x02, 0x06, 0xf6, 0xfb, 0xf8, 0x05, 0xff, 0xfb, 0x09, 0x01, 0x13,
  0xf7, 0xfe, 0xfd, 0x07, 0xf6, 0x06, 0x03, 0xf9, 0x1c, 0xff, 0xff, 0xf8,
  0xfd, 0x04, 0xfe, 0xfe, 0xfe, 0x00, 0xf5, 0x13, 0x01, 0xfc, 0xf0, 0x04,
  0xf7, 0xf9, 0xf6, 0x06, 0x09, 0xf7, 0x4e, 0x03, 0xf4, 0xec, 0xfa, 0xe4,
  0xfa, 0xf5, 0x9f, 0x00, 0x0d, 0x1c, 0x03, 0xf7, 0x00, 0xfc, 0xee, 0x01,
  0xf6, 0xd2, 0x03, 0x14, 0x2b, 0xfe, 0x30, 0x25, 0x05, 0x27, 0x1f, 0x10,
  0xf7, 0x08, 0x04, 0x26, 0x01, 0x2e, 0x2e, 0xfd, 0x26, 0xf9, 0x0d, 0x18,
  0x05, 0x07, 0xfa, 0x02, 0x3c, 0x10, 0x00, 0x04, 0x08, 0xf8, 0xd8, 0x01,
  0xee, 0xdd, 0x02, 0xff, 0x1b, 0xff, 0x00, 0xfc, 0xff, 0xea, 0x0d, 0x00,
  0xfc, 0x04, 0x0a, 0x04, 0xff, 0xfb, 0xf9, 0x02, 0xfe, 0xfe, 0x01, 0x07,
  0x05, 0x04, 0x03, 0x01, 0xf7, 0x00, 0xfe, 0xed, 0xfb, 0xf9, 0xff, 0xff,
  0x11, 0xf9, 0xfc, 0x06, 0x01, 0xfd, 0xf9, 0x06, 0x03, 0x00, 0x04, 0x0b,
  0x0a, 0xfb, 0xef, 0xf0, 0xfb, 0x04, 0xfd, 0x03, 0x0a, 0xfe, 0x19, 0x00,
  0x00, 0xfd, 0x10, 0xf3, 0x12, 0x08, 0xf4, 0xf9, 0x08, 0x00, 0xff, 0x04,
  0xe8, 0x0a, 0xfe, 0x0d, 0x04, 0xf5, 0x05, 0xfd, 0x95, 0xd9, 0x00, 0xd6,
  0xd8, 0xf5, 0x0c, 0x04, 0xe9, 0x19, 0xfd, 0xab, 0xe0, 0xfe, 0xd1, 0xdd,
  0xf2, 0x06, 0xfd, 0x0d, 0x02, 0x00, 0x01, 0xf5, 0xfd, 0xf6, 0xf6, 0xf8,
  0xf5, 0x0b, 0x03, 0x35, 0xfb, 0xf3, 0x06, 0xfe, 0x26, 0x14, 0x0e, 0xf7,
  0xff, 0xf8, 0x22, 0xfd, 0x1d, 0x25, 0xfe, 0x03, 0xfc, 0x0a, 0xd5, 0x07,
  0xf9, 0x16, 0x05, 0x08, 0x11, 0xff, 0x0d, 0xec, 0x09, 0xe6, 0x01, 0xf3,
  0x21, 0x01, 0xe3, 0x4c, 0x02, 0x06, 0x2e, 0xfe, 0xc1, 0x0f, 0x03, 0x05,
  0x01, 0x06, 0x0a, 0xfc, 0x08, 0x05, 0x03, 0xf8, 0x00, 0x02, 0xf3, 0xfc,
  0x01, 0x09, 0xfc, 0xfe, 0xfc, 0x01, 0xf1, 0xfc, 0xf9, 0x04, 0x01, 0x05,
  0x02, 0x01, 0x01, 0x07, 0xfc, 0x05, 0x03, 0x00, 0xff, 0xfe, 0xfc, 0x09,
  0x01, 0xfc, 0xfe, 0xfe, 0xfe, 0x06, 0x01, 0x01, 0x00, 0xff, 0xfb, 0x02,
  0x05, 0xf8, 0xf9, 0x07, 0xfb, 0xeb, 0x03, 0x00, 0x0b, 0x0b, 0xfb, 0xe3,
  0x02, 0x06, 0xf4, 0xf7, 0x0f, 0xff, 0x01, 0x0a, 0xf8, 0xfd, 0xef, 0xfd,
  0xf3, 0xef, 0x07, 0x02, 0xf1, 0x05, 0xe7, 0xdf, 0xf8, 0xd3, 0xf4, 0xec,
  0xe6, 0x04, 0x32, 0xf9, 0x01, 0xe3, 0x16, 0xf9, 0xee, 0xfc, 0xfa, 0xea,
  0xfb, 0x20, 0x02, 0xff, 0xfd, 0x2b, 0xff, 0x1a, 0x1e, 0x0a, 0xeb, 0x05,
  0xec, 0xfa, 0xfb, 0xee, 0x15, 0x02, 0xf6, 0xf9, 0x00, 0xe2, 0xfb, 0x0d,
  0xfd, 0x05, 0x0f, 0x5e, 0xfa, 0x13, 0x00, 0xfd, 0x0f, 0xff, 0x02, 0xef,
  0x04, 0xe3, 0x3e, 0x00, 0xe0, 0x16, 0xff, 0xd1, 0x09, 0x08, 0xf7, 0x01,
  0x04, 0x0d, 0xfd, 0xfe, 0xf6, 0x05, 0xf2, 0x00, 0xf2, 0xfb, 0x05, 0xe4,
  0xfe, 0x00, 0x08, 0xf3, 0xfd, 0xf9, 0xff, 0xf4, 0xfd, 0xfa, 0x22, 0x01,
  0x00, 0xf9, 0xf6, 0xfd, 0x04, 0x01, 0xfa, 0x03, 0xfe, 0x10, 0xff, 0xf6,
  0x01, 0xee, 0xfc, 0xfb, 0xfe, 0x04, 0xfe, 0x02, 0xed, 0x0d, 0xfc, 0x09,
  0xfe, 0x03, 0xf7, 0x06, 0x00, 0xf9, 0x00, 0x04, 0xfd, 0x02, 0xf8, 0xff,
  0xfc, 0xe0, 0xff, 0xfe, 0xf5, 0xfd, 0xf6, 0xe8, 0xff, 0xef, 0x09, 0xfc,
  0xf9, 0x06, 0x08, 0xf3, 0x03, 0xcf, 0x08, 0xfe, 0xe3, 0xf6, 0xf3, 0x5d,
  0xfc, 0x15, 0xfd, 0x05, 0xde, 0xd5, 0xf9, 0xf6, 0xe8, 0x05, 0xf1, 0x04,
  0x19, 0x01, 0x00, 0xfa, 0x19, 0x01, 0x07, 0x16, 0x05, 0xce, 0xfe, 0xda,
  0x03, 0xfe, 0x25, 0xff, 0xfe, 0x16, 0x0f, 0xfd, 0x2c, 0xfc, 0xfc, 0x08,
  0x03, 0x11, 0x17, 0xfa, 0xfb, 0x1d, 0x0b, 0xe7, 0x09, 0xf9, 0xfd, 0x05,
  0xe1, 0x05, 0x02, 0x03, 0x08, 0xfc, 0xf5, 0x07, 0xf6, 0xfd, 0xff, 0xff,
  0x04, 0x00, 0x00, 0x00, 0x08, 0x00, 0x00, 0x00, 0x9c, 0xfb, 0xff, 0xff,
  0x64, 0x04, 0x00, 0x00, 0x0a, 0xfe, 0xff, 0xff, 0x04, 0x00, 0x00, 0x00,
  0x08, 0x00, 0x00, 0x00, 0xff, 0xff, 0xff, 0xff, 0x2c, 0x0b, 0x00, 0x00,
  0x7c, 0xf1, 0xff, 0xff, 0x22, 0xfe, 0xff, 0xff, 0x04, 0x00, 0x00, 0x00,
  0x04, 0x00, 0x00, 0x00, 0x28, 0x00, 0x00, 0x00, 0x32, 0xfe, 0xff, 0xff,
  0x04, 0x00, 0x00, 0x00, 0x04, 0x00, 0x00, 0x00, 0x3c, 0x00, 0x00, 0x00,
  0x42, 0xfe, 0xff, 0xff, 0x04, 0x00, 0x00, 0x00, 0x04, 0x00, 0x00, 0x00,
  0x01, 0x00, 0x00, 0x00, 0x52, 0xfe, 0xff, 0xff, 0x04, 0x00, 0x00, 0x00,
  0x04, 0x00, 0x00, 0x00, 0x00, 0x00, 0x00, 0x00, 0xc0, 0xf1, 0xff, 0xff,
  0xc4, 0xf1, 0xff, 0xff, 0x0f, 0x00, 0x00, 0x00, 0x4d, 0x4c, 0x49, 0x52,
  0x20, 0x43, 0x6f, 0x6e, 0x76, 0x65, 0x72, 0x74, 0x65, 0x64, 0x2e, 0x00,
  0x01, 0x00, 0x00, 0x00, 0x14, 0x00, 0x00, 0x00, 0x00, 0x00, 0x0e, 0x00,
  0x18, 0x00, 0x14, 0x00, 0x10, 0x00, 0x0c, 0x00, 0x08, 0x00, 0x04, 0x00,
  0x0e, 0x00, 0x00, 0x00, 0x14, 0x00, 0x00, 0x00, 0x1c, 0x00, 0x00, 0x00,
  0x28, 0x02, 0x00, 0x00, 0x2c, 0x02, 0x00, 0x00, 0x30, 0x02, 0x00, 0x00,
  0x04, 0x00, 0x00, 0x00, 0x6d, 0x61, 0x69, 0x6e, 0x00, 0x00, 0x00, 0x00,
  0x08, 0x00, 0x00, 0x00, 0xd8, 0x01, 0x00, 0x00, 0x78, 0x01, 0x00, 0x00,
  0x20, 0x01, 0x00, 0x00, 0xf8, 0x00, 0x00, 0x00, 0x98, 0x00, 0x00, 0x00,
  0x70, 0x00, 0x00, 0x00, 0x38, 0x00, 0x00, 0x00, 0x04, 0x00, 0x00, 0x00,
  0xb2, 0xfe, 0xff, 0xff, 0x14, 0x00, 0x00, 0x00, 0x00, 0x00, 0x00, 0x09,
  0x14, 0x00, 0x00, 0x00, 0x18, 0x00, 0x00, 0x00, 0x06, 0x00, 0x00, 0x00,
  0xf6, 0xfe, 0xff, 0xff, 0x00, 0x00, 0x80, 0x3f, 0x01, 0x00, 0x00, 0x00,
  0x12, 0x00, 0x00, 0x00, 0x01, 0x00, 0x00, 0x00, 0x11, 0x00, 0x00, 0x00,
  0xe2, 0xfe, 0xff, 0xff, 0x14, 0x00, 0x00, 0x00, 0x00, 0x00, 0x00, 0x08,
  0x10, 0x00, 0x00, 0x00, 0x14, 0x00, 0x00, 0x00, 0x05, 0x00, 0x00, 0x00,
  0x84, 0xf2, 0xff, 0xff, 0x01, 0x00, 0x00, 0x00, 0x11, 0x00, 0x00, 0x00,
  0x03, 0x00, 0x00, 0x00, 0x10, 0x00, 0x00, 0x00, 0x08, 0x00, 0x00, 0x00,
  0x07, 0x00, 0x00, 0x00, 0x8a, 0xff, 0xff, 0xff, 0x0c, 0x00, 0x00, 0x00,
  0x10, 0x00, 0x00, 0x00, 0x03, 0x00, 0x00, 0x00, 0x01, 0x00, 0x00, 0x00,
  0x10, 0x00, 0x00, 0x00, 0x02, 0x00, 0x00, 0x00, 0x0f, 0x00, 0x00, 0x00,
  0x06, 0x00, 0x00, 0x00, 0x3a, 0xff, 0xff, 0xff, 0x20, 0x00, 0x00, 0x00,
  0x00, 0x00, 0x00, 0x01, 0x2c, 0x00, 0x00, 0x00, 0x30, 0x00, 0x00, 0x00,
  0x04, 0x00, 0x00, 0x00, 0x0c, 0x00, 0x14, 0x00, 0x13, 0x00, 0x0c, 0x00,
  0x08, 0x00, 0x07, 0x00, 0x0c, 0x00, 0x00, 0x00, 0x00, 0x00, 0x00, 0x01,
  0x03, 0x00, 0x00, 0x00, 0x03, 0x00, 0x00, 0x00, 0x00, 0x00, 0x00, 0x01,
  0x01, 0x00, 0x00, 0x00, 0x0f, 0x00, 0x00, 0x00, 0x03, 0x00, 0x00, 0x00,
  0x0e, 0x00, 0x00, 0x00, 0x0a, 0x00, 0x00, 0x00, 0x09, 0x00, 0x00, 0x00,
  0x00, 0x00, 0x0a, 0x00, 0x10, 0x00, 0x0c, 0x00, 0x08, 0x00, 0x04, 0x00,
  0x0a, 0x00, 0x00, 0x00, 0x0c, 0x00, 0x00, 0x00, 0x10, 0x00, 0x00, 0x00,
  0x03, 0x00, 0x00, 0x00, 0x01, 0x00, 0x00, 0x00, 0x0e, 0x00, 0x00, 0x00,
  0x02, 0x00, 0x00, 0x00, 0x00, 0x00, 0x00, 0x00, 0x0d, 0x00, 0x00, 0x00,
  0xba, 0xff, 0xff, 0xff, 0x1c, 0x00, 0x00, 0x00, 0x00, 0x00, 0x00, 0x3b,
  0x1c, 0x00, 0x00, 0x00, 0x20, 0x00, 0x00, 0x00, 0x02, 0x00, 0x00, 0x00,
  0x00, 0x00, 0x06, 0x00, 0x08, 0x00, 0x04, 0x00, 0x06, 0x00, 0x00, 0x00,
  0x04, 0x00, 0x00, 0x00, 0x01, 0x00, 0x00, 0x00, 0x0d, 0x00, 0x00, 0x00,
  0x04, 0x00, 0x00, 0x00, 0x0c, 0x00, 0x00, 0x00, 0x03, 0x00, 0x00, 0x00,
  0x04, 0x00, 0x00, 0x00, 0x05, 0x00, 0x00, 0x00, 0x00, 0x00, 0x0e, 0x00,
  0x1a, 0x00, 0x14, 0x00, 0x10, 0x00, 0x0c, 0x00, 0x0b, 0x00, 0x04, 0x00,
  0x0e, 0x00, 0x00, 0x00, 0x24, 0x00, 0x00, 0x00, 0x00, 0x00, 0x00, 0x20,
  0x24, 0x00, 0x00, 0x00, 0x28, 0x00, 0x00, 0x00, 0x01, 0x00, 0x00, 0x00,
  0x00, 0x00, 0x0e, 0x00, 0x08, 0x00, 0x00, 0x00, 0x00, 0x00, 0x00, 0x00,
  0x00, 0x00, 0x04, 0x00, 0x0e, 0x00, 0x00, 0x00, 0x01, 0x00, 0x00, 0x00,
  0x01, 0x00, 0x00, 0x00, 0x0c, 0x00, 0x00, 0x00, 0x04, 0x00, 0x00, 0x00,
  0x0b, 0x00, 0x00, 0x00, 0x01, 0x00, 0x00, 0x00, 0x02, 0x00, 0x00, 0x00,
  0x02, 0x00, 0x00, 0x00, 0x00, 0x00, 0x0e, 0x00, 0x16, 0x00, 0x00, 0x00,
  0x10, 0x00, 0x0c, 0x00, 0x0b, 0x00, 0x04, 0x00, 0x0e, 0x00, 0x00, 0x00,
  0x18, 0x00, 0x00, 0x00, 0x00, 0x00, 0x00, 0x37, 0x18, 0x00, 0x00, 0x00,
  0x1c, 0x00, 0x00, 0x00, 0x00, 0x00, 0x06, 0x00, 0x08, 0x00, 0x07, 0x00,
  0x06, 0x00, 0x00, 0x00, 0x00, 0x00, 0x00, 0x02, 0x01, 0x00, 0x00, 0x00,
  0x0b, 0x00, 0x00, 0x00, 0x01, 0x00, 0x00, 0x00, 0x00, 0x00, 0x00, 0x00,
  0x01, 0x00, 0x00, 0x00, 0x12, 0x00, 0x00, 0x00, 0x01, 0x00, 0x00, 0x00,
  0x00, 0x00, 0x00, 0x00, 0x13, 0x00, 0x00, 0x00, 0x00, 0x0c, 0x00, 0x00,
  0xa4, 0x0b, 0x00, 0x00, 0x4c, 0x0b, 0x00, 0x00, 0x10, 0x0b, 0x00, 0x00,
  0xd4, 0x0a, 0x00, 0x00, 0x98, 0x0a, 0x00, 0x00, 0x58, 0x0a, 0x00, 0x00,
  0xf8, 0x09, 0x00, 0x00, 0x94, 0x09, 0x00, 0x00, 0xb8, 0x08, 0x00, 0x00,
  0xd4, 0x07, 0x00, 0x00, 0x30, 0x07, 0x00, 0x00, 0x80, 0x06, 0x00, 0x00,
  0xcc, 0x05, 0x00, 0x00, 0xe4, 0x04, 0x00, 0x00, 0xa0, 0x02, 0x00, 0x00,
  0xc4, 0x01, 0x00, 0x00, 0x80, 0x00, 0x00, 0x00, 0x04, 0x00, 0x00, 0x00,
  0x62, 0xf4, 0xff, 0xff, 0x00, 0x00, 0x00, 0x01, 0x18, 0x00, 0x00, 0x00,
  0x20, 0x00, 0x00, 0x00, 0x3c, 0x00, 0x00, 0x00, 0x13, 0x00, 0x00, 0x00,
  0x00, 0x00, 0x00, 0x09, 0x50, 0x00, 0x00, 0x00, 0x02, 0x00, 0x00, 0x00,
  0xff, 0xff, 0xff, 0xff, 0x02, 0x00, 0x00, 0x00, 0x4c, 0xf4, 0xff, 0xff,
  0x08, 0x00, 0x00, 0x00, 0x10, 0x00, 0x00, 0x00, 0x01, 0x00, 0x00, 0x00,
  0x80, 0xff, 0xff, 0xff, 0xff, 0xff, 0xff, 0xff, 0x01, 0x00, 0x00, 0x00,
  0x00, 0x00, 0x80, 0x3b, 0x19, 0x00, 0x00, 0x00, 0x53, 0x74, 0x61, 0x74,
  0x65, 0x66, 0x75, 0x6c, 0x50, 0x61, 0x72, 0x74, 0x69, 0x74, 0x69, 0x6f,
  0x6e, 0x65, 0x64, 0x43, 0x61, 0x6c, 0x6c, 0x5f, 0x31, 0x00, 0x00, 0x00,
  0x02, 0x00, 0x00, 0x00, 0x01, 0x00, 0x00, 0x00, 0x02, 0x00, 0x00, 0x00,
  0xda, 0xf4, 0xff, 0xff, 0x00, 0x00, 0x00, 0x01, 0x18, 0x00, 0x00, 0x00,
  0x20, 0x00, 0x00, 0x00, 0x40, 0x00, 0x00, 0x00, 0x12, 0x00, 0x00, 0x00,
  0x00, 0x00, 0x00, 0x09, 0x18, 0x01, 0x00, 0x00, 0x02, 0x00, 0x00, 0x00,
  0xff, 0xff, 0xff, 0xff, 0x02, 0x00, 0x00, 0x00, 0xc4, 0xf4, 0xff, 0xff,
  0x08, 0x00, 0x00, 0x00, 0x14, 0x00, 0x00, 0x00, 0x01, 0x00, 0x00, 0x00,
  0xfa, 0xff, 0xff, 0xff, 0xff, 0xff, 0xff, 0xff, 0x00, 0x00, 0x00, 0x00,
  0x01, 0x00, 0x00, 0x00, 0x78, 0x5c, 0xd4, 0x3d, 0xdd, 0x00, 0x00, 0x00,
  0x73, 0x65, 0x71, 0x75, 0x65, 0x6e, 0x74, 0x69, 0x61, 0x6c, 0x5f, 0x36,
  0x5f, 0x31, 0x2f, 0x64, 0x65, 0x6e, 0x73, 0x65, 0x5f, 0x36, 0x5f, 0x31,
  0x2f, 0x4d, 0x61, 0x74, 0x4d, 0x75, 0x6c, 0x3b, 0x53, 0x74, 0x61, 0x74,
  0x65, 0x66, 0x75, 0x6c, 0x50, 0x61, 0x72, 0x74, 0x69, 0x74, 0x69, 0x6f,
  0x6e, 0x65, 0x64, 0x43, 0x61, 0x6c, 0x6c, 0x5f, 0x31, 0x2f, 0x53, 0x74,
  0x61, 0x74, 0x65, 0x66, 0x75, 0x6c, 0x50, 0x61, 0x72, 0x74, 0x69, 0x74,
  0x69, 0x6f, 0x6e, 0x65, 0x64, 0x43, 0x61, 0x6c, 0x6c, 0x2f, 0x73, 0x65,
  0x71, 0x75, 0x65, 0x6e, 0x74, 0x69, 0x61, 0x6c, 0x5f, 0x36, 0x5f, 0x31,
  0x2f, 0x64, 0x65, 0x6e, 0x73, 0x65, 0x5f, 0x36, 0x5f, 0x31, 0x2f, 0x4d,
  0x61, 0x74, 0x4d, 0x75, 0x6c, 0x3b, 0x73, 0x65, 0x71, 0x75, 0x65, 0x6e,
  0x74, 0x69, 0x61, 0x6c, 0x5f, 0x36, 0x5f, 0x31, 0x2f, 0x64, 0x65, 0x6e,
  0x73, 0x65, 0x5f, 0x36, 0x5f, 0x31, 0x2f, 0x41, 0x64, 0x64, 0x3b, 0x53,
  0x74, 0x61, 0x74, 0x65, 0x66, 0x75, 0x6c, 0x50, 0x61, 0x72, 0x74, 0x69,
  0x74, 0x69, 0x6f, 0x6e, 0x65, 0x64, 0x43, 0x61, 0x6c, 0x6c, 0x5f, 0x31,
  0x2f, 0x53, 0x74, 0x61, 0x74, 0x65, 0x66, 0x75, 0x6c, 0x50, 0x61, 0x72,
  0x74, 0x69, 0x74, 0x69, 0x6f, 0x6e, 0x65, 0x64, 0x43, 0x61, 0x6c, 0x6c,
  0x2f, 0x73, 0x65, 0x71, 0x75, 0x65, 0x6e, 0x74, 0x69, 0x61, 0x6c, 0x5f,
  0x36, 0x5f, 0x31, 0x2f, 0x64, 0x65, 0x6e, 0x73, 0x65, 0x5f, 0x36, 0x5f,
  0x31, 0x2f, 0x41, 0x64, 0x64, 0x00, 0x00, 0x00, 0x02, 0x00, 0x00, 0x00,
  0x01, 0x00, 0x00, 0x00, 0x02, 0x00, 0x00, 0x00, 0x1a, 0xf6, 0xff, 0xff,
  0x00, 0x00, 0x00, 0x01, 0x18, 0x00, 0x00, 0x00, 0x20, 0x00, 0x00, 0x00,
  0x40, 0x00, 0x00, 0x00, 0x11, 0x00, 0x00, 0x00, 0x00, 0x00, 0x00, 0x09,
  0xb0, 0x00, 0x00, 0x00, 0x02, 0x00, 0x00, 0x00, 0xff, 0xff, 0xff, 0xff,
  0x2c, 0x0b, 0x00, 0x00, 0x04, 0xf6, 0xff, 0xff, 0x08, 0x00, 0x00, 0x00,
  0x14, 0x00, 0x00, 0x00, 0x01, 0x00, 0x00, 0x00, 0x80, 0xff, 0xff, 0xff,
  0xff, 0xff, 0xff, 0xff, 0x00, 0x00, 0x00, 0x00, 0x01, 0x00, 0x00, 0x00,
  0x11, 0xe7, 0xcf, 0x3d, 0x77, 0x00, 0x00, 0x00, 0x73, 0x65, 0x71, 0x75,
  0x65, 0x6e, 0x74, 0x69, 0x61, 0x6c, 0x5f, 0x36, 0x5f, 0x31, 0x2f, 0x66,
  0x6c, 0x61, 0x74, 0x74, 0x65, 0x6e, 0x5f, 0x36, 0x5f, 0x31, 0x2f, 0x52,
  0x65, 0x73, 0x68, 0x61, 0x70, 0x65, 0x3b, 0x53, 0x74, 0x61, 0x74, 0x65,
  0x66, 0x75, 0x6c, 0x50, 0x61, 0x72, 0x74, 0x69, 0x74, 0x69, 0x6f, 0x6e,
  0x65, 0x64, 0x43, 0x61, 0x6c, 0x6c, 0x5f, 0x31, 0x2f, 0x53, 0x74, 0x61,
  0x74, 0x65, 0x66, 0x75, 0x6c, 0x50, 0x61, 0x72, 0x74, 0x69, 0x74, 0x69,
  0x6f, 0x6e, 0x65, 0x64, 0x43, 0x61, 0x6c, 0x6c, 0x2f, 0x73, 0x65, 0x71,
  0x75, 0x65, 0x6e, 0x74, 0x69, 0x61, 0x6c, 0x5f, 0x36, 0x5f, 0x31, 0x2f,
  0x66, 0x6c, 0x61, 0x74, 0x74, 0x65, 0x6e, 0x5f, 0x36, 0x5f, 0x31, 0x2f,
  0x52, 0x65, 0x73, 0x68, 0x61, 0x70, 0x65, 0x00, 0x02, 0x00, 0x00, 0x00,
  0x01, 0x00, 0x00, 0x00, 0x2c, 0x0b, 0x00, 0x00, 0xf2, 0xf6, 0xff, 0xff,
  0x00, 0x00, 0x00, 0x01, 0x18, 0x00, 0x00, 0x00, 0x28, 0x00, 0x00, 0x00,
  0x44, 0x00, 0x00, 0x00, 0x10, 0x00, 0x00, 0x00, 0x00, 0x00, 0x00, 0x09,
  0x10, 0x02, 0x00, 0x00, 0x04, 0x00, 0x00, 0x00, 0xff, 0xff, 0xff, 0xff,
  0x14, 0x00, 0x00, 0x00, 0x0d, 0x00, 0x00, 0x00, 0x0b, 0x00, 0x00, 0x00,
  0xe4, 0xf6, 0xff, 0xff, 0x08, 0x00, 0x00, 0x00, 0x10, 0x00, 0x00, 0x00,
  0x01, 0x00, 0x00, 0x00, 0x80, 0xff, 0xff, 0xff, 0xff, 0xff, 0xff, 0xff,
  0x01, 0x00, 0x00, 0x00, 0x11, 0xe7, 0xcf, 0x3d, 0xd1, 0x01, 0x00, 0x00,
  0x73, 0x65, 0x71, 0x75, 0x65, 0x6e, 0x74, 0x69, 0x61, 0x6c, 0x5f, 0x36,
  0x5f, 0x31, 0x2f, 0x63, 0x6f, 0x6e, 0x76, 0x32, 0x64, 0x5f, 0x36, 0x5f,
  0x31, 0x2f, 0x52, 0x65, 0x6c, 0x75, 0x3b, 0x53, 0x74, 0x61, 0x74, 0x65,
  0x66, 0x75, 0x6c, 0x50, 0x61, 0x72, 0x74, 0x69, 0x74, 0x69, 0x6f, 0x6e,
  0x65, 0x64, 0x43, 0x61, 0x6c, 0x6c, 0x5f, 0x31, 0x2f, 0x53, 0x74, 0x61,
  0x74, 0x65, 0x66, 0x75, 0x6c, 0x50, 0x61, 0x72, 0x74, 0x69, 0x74, 0x69,
  0x6f, 0x6e, 0x65, 0x64, 0x43, 0x61, 0x6c, 0x6c, 0x2f, 0x73, 0x65, 0x71,
  0x75, 0x65, 0x6e, 0x74, 0x69, 0x61, 0x6c, 0x5f, 0x36, 0x5f, 0x31, 0x2f,
  0x63, 0x6f, 0x6e, 0x76, 0x32, 0x64, 0x5f, 0x36, 0x5f, 0x31, 0x2f, 0x52,
  0x65, 0x6c, 0x75, 0x3b, 0x73, 0x65, 0x71, 0x75, 0x65, 0x6e, 0x74, 0x69,
  0x61, 0x6c, 0x5f, 0x36, 0x5f, 0x31, 0x2f, 0x63, 0x6f, 0x6e, 0x76, 0x32,
  0x64, 0x5f, 0x36, 0x5f, 0x31, 0x2f, 0x61, 0x64, 0x64, 0x3b, 0x53, 0x74,
  0x61, 0x74, 0x65, 0x66, 0x75, 0x6c, 0x50, 0x61, 0x72, 0x74, 0x69, 0x74,
  0x69, 0x6f, 0x6e, 0x65, 0x64, 0x43, 0x61, 0x6c, 0x6c, 0x5f, 0x31, 0x2f,
  0x53, 0x74, 0x61, 0x74, 0x65, 0x66, 0x75, 0x6c, 0x50, 0x61, 0x72, 0x74,
  0x69, 0x74, 0x69, 0x6f, 0x6e, 0x65, 0x64, 0x43, 0x61, 0x6c, 0x6c, 0x2f,
  0x73, 0x65, 0x71, 0x75, 0x65, 0x6e, 0x74, 0x69, 0x61, 0x6c, 0x5f, 0x36,
  0x5f, 0x31, 0x2f, 0x63, 0x6f, 0x6e, 0x76, 0x32, 0x64, 0x5f, 0x36, 0x5f,
  0x31, 0x2f, 0x61, 0x64, 0x64, 0x3b, 0x73, 0x65, 0x71, 0x75, 0x65, 0x6e,
  0x74, 0x69, 0x61, 0x6c, 0x5f, 0x36, 0x5f, 0x31, 0x2f, 0x63, 0x6f, 0x6e,
  0x76, 0x32, 0x64, 0x5f, 0x36, 0x5f, 0x31, 0x2f, 0x63, 0x6f, 0x6e, 0x76,
  0x6f, 0x6c, 0x75, 0x74, 0x69, 0x6f, 0x6e, 0x3b, 0x53, 0x74, 0x61, 0x74,
  0x65, 0x66, 0x75, 0x6c, 0x50, 0x61, 0x72, 0x74, 0x69, 0x74, 0x69, 0x6f,
  0x6e, 0x65, 0x64, 0x43, 0x61, 0x6c, 0x6c, 0x5f, 0x31, 0x2f, 0x53, 0x74,
  0x61, 0x74, 0x65, 0x66, 0x75, 0x6c, 0x50, 0x61, 0x72, 0x74, 0x69, 0x74,
  0x69, 0x6f, 0x6e, 0x65, 0x64, 0x43, 0x61, 0x6c, 0x6c, 0x2f, 0x73, 0x65,
  0x71, 0x75, 0x65, 0x6e, 0x74, 0x69, 0x61, 0x6c, 0x5f, 0x36, 0x5f, 0x31,
  0x2f, 0x63, 0x6f, 0x6e, 0x76, 0x32, 0x64, 0x5f, 0x36, 0x5f, 0x31, 0x2f,
  0x63, 0x6f, 0x6e, 0x76, 0x6f, 0x6c, 0x75, 0x74, 0x69, 0x6f, 0x6e, 0x3b,
  0x73, 0x65, 0x71, 0x75, 0x65, 0x6e, 0x74, 0x69, 0x61, 0x6c, 0x5f, 0x36,
  0x5f, 0x31, 0x2f, 0x63, 0x6f, 0x6e, 0x76, 0x32, 0x64, 0x5f, 0x36, 0x5f,
  0x31, 0x2f, 0x52, 0x65, 0x73, 0x68, 0x61, 0x70, 0x65, 0x3b, 0x53, 0x74,
  0x61, 0x74, 0x65, 0x66, 0x75, 0x6c, 0x50, 0x61, 0x72, 0x74, 0x69, 0x74,
  0x69, 0x6f, 0x6e, 0x65, 0x64, 0x43, 0x61, 0x6c, 0x6c, 0x5f, 0x31, 0x2f,
  0x53, 0x74, 0x61, 0x74, 0x65, 0x66, 0x75, 0x6c, 0x50, 0x61, 0x72, 0x74,
  0x69, 0x74, 0x69, 0x6f, 0x6e, 0x65, 0x64, 0x43, 0x61, 0x6c, 0x6c, 0x2f,
  0x73, 0x65, 0x71, 0x75, 0x65, 0x6e, 0x74, 0x69, 0x61, 0x6c, 0x5f, 0x36,
  0x5f, 0x31, 0x2f, 0x63, 0x6f, 0x6e, 0x76, 0x32, 0x64, 0x5f, 0x36, 0x5f,
  0x31, 0x2f, 0x52, 0x65, 0x73, 0x68, 0x61, 0x70, 0x65, 0x00, 0x00, 0x00,
  0x04, 0x00, 0x00, 0x00, 0x01, 0x00, 0x00, 0x00, 0x14, 0x00, 0x00, 0x00,
  0x0d, 0x00, 0x00, 0x00, 0x0b, 0x00, 0x00, 0x00, 0x32, 0xf9, 0xff, 0xff,
  0x00, 0x00, 0x00, 0x01, 0x18, 0x00, 0x00, 0x00, 0x28, 0x00, 0x00, 0x00,
  0x44, 0x00, 0x00, 0x00, 0x0f, 0x00, 0x00, 0x00, 0x00, 0x00, 0x00, 0x09,
  0xb4, 0x00, 0x00, 0x00, 0x04, 0x00, 0x00, 0x00, 0xff, 0xff, 0xff, 0xff,
  0x3c, 0x00, 0x00, 0x00, 0x28, 0x00, 0x00, 0x00, 0x01, 0x00, 0x00, 0x00,
  0x24, 0xf9, 0xff, 0xff, 0x08, 0x00, 0x00, 0x00, 0x10, 0x00, 0x00, 0x00,
  0x01, 0x00, 0x00, 0x00, 0x7f, 0x00, 0x00, 0x00, 0x00, 0x00, 0x00, 0x00,
  0x01, 0x00, 0x00, 0x00, 0xa1, 0xa0, 0xa0, 0x3e, 0x77, 0x00, 0x00, 0x00,
  0x73, 0x65, 0x71, 0x75, 0x65, 0x6e, 0x74, 0x69, 0x61, 0x6c, 0x5f, 0x36,
  0x5f, 0x31, 0x2f, 0x72, 0x65, 0x73, 0x68, 0x61, 0x70, 0x65, 0x5f, 0x36,
  0x5f, 0x31, 0x2f, 0x52, 0x65, 0x73, 0x68, 0x61, 0x70, 0x65, 0x3b, 0x53,
  0x74, 0x61, 0x74, 0x65, 0x66, 0x75, 0x6c, 0x50, 0x61, 0x72, 0x74, 0x69,
  0x74, 0x69, 0x6f, 0x6e, 0x65, 0x64, 0x43, 0x61, 0x6c, 0x6c, 0x5f, 0x31,
  0x2f, 0x53, 0x74, 0x61, 0x74, 0x65, 0x66, 0x75, 0x6c, 0x50, 0x61, 0x72,
  0x74, 0x69, 0x74, 0x69, 0x6f, 0x6e, 0x65, 0x64, 0x43, 0x61, 0x6c, 0x6c,
  0x2f, 0x73, 0x65, 0x71, 0x75, 0x65, 0x6e, 0x74, 0x69, 0x61, 0x6c, 0x5f,
  0x36, 0x5f, 0x31, 0x2f, 0x72, 0x65, 0x73, 0x68, 0x61, 0x70, 0x65, 0x5f,
  0x36, 0x5f, 0x31, 0x2f, 0x52, 0x65, 0x73, 0x68, 0x61, 0x70, 0x65, 0x00,
  0x04, 0x00, 0x00, 0x00, 0x01, 0x00, 0x00, 0x00, 0x3c, 0x00, 0x00, 0x00,
  0x28, 0x00, 0x00, 0x00, 0x01, 0x00, 0x00, 0x00, 0x6e, 0xfa, 0xff, 0xff,
  0x00, 0x00, 0x00, 0x01, 0x14, 0x00, 0x00, 0x00, 0x14, 0x00, 0x00, 0x00,
  0x0e, 0x00, 0x00, 0x00, 0x00, 0x00, 0x00, 0x02, 0x90, 0x00, 0x00, 0x00,
  0x58, 0xfa, 0xff, 0xff, 0x83, 0x00, 0x00, 0x00, 0x73, 0x65, 0x71, 0x75,
  0x65, 0x6e, 0x74, 0x69, 0x61, 0x6c, 0x5f, 0x36, 0x5f, 0x31, 0x2f, 0x72,
  0x65, 0x73, 0x68, 0x61, 0x70, 0x65, 0x5f, 0x36, 0x5f, 0x31, 0x2f, 0x52,
  0x65, 0x73, 0x68, 0x61, 0x70, 0x65, 0x2f, 0x73, 0x68, 0x61, 0x70, 0x65,
  0x3b, 0x53, 0x74, 0x61, 0x74, 0x65, 0x66, 0x75, 0x6c, 0x50, 0x61, 0x72,
  0x74, 0x69, 0x74, 0x69, 0x6f, 0x6e, 0x65, 0x64, 0x43, 0x61, 0x6c, 0x6c,
  0x5f, 0x31, 0x2f, 0x53, 0x74, 0x61, 0x74, 0x65, 0x66, 0x75, 0x6c, 0x50,
  0x61, 0x72, 0x74, 0x69, 0x74, 0x69, 0x6f, 0x6e, 0x65, 0x64, 0x43, 0x61,
  0x6c, 0x6c, 0x2f, 0x73, 0x65, 0x71, 0x75, 0x65, 0x6e, 0x74, 0x69, 0x61,
  0x6c, 0x5f, 0x36, 0x5f, 0x31, 0x2f, 0x72, 0x65, 0x73, 0x68, 0x61, 0x70,
  0x65, 0x5f, 0x36, 0x5f, 0x31, 0x2f, 0x52, 0x65, 0x73, 0x68, 0x61, 0x70,
  0x65, 0x2f, 0x73, 0x68, 0x61, 0x70, 0x65, 0x00, 0x01, 0x00, 0x00, 0x00,
  0x04, 0x00, 0x00, 0x00, 0x1e, 0xfb, 0xff, 0xff, 0x00, 0x00, 0x00, 0x01,
  0x14, 0x00, 0x00, 0x00, 0x14, 0x00, 0x00, 0x00, 0x0d, 0x00, 0x00, 0x00,
  0x00, 0x00, 0x00, 0x02, 0x90, 0x00, 0x00, 0x00, 0x08, 0xfb, 0xff, 0xff,
  0x83, 0x00, 0x00, 0x00, 0x73, 0x65, 0x71, 0x75, 0x65, 0x6e, 0x74, 0x69,
  0x61, 0x6c, 0x5f, 0x36, 0x5f, 0x31, 0x2f, 0x72, 0x65, 0x73, 0x68, 0x61,
  0x70, 0x65, 0x5f, 0x36, 0x5f, 0x31, 0x2f, 0x73, 0x74, 0x72, 0x69, 0x64,
  0x65, 0x64, 0x5f, 0x73, 0x6c, 0x69, 0x63, 0x65, 0x3b, 0x53, 0x74, 0x61,
  0x74, 0x65, 0x66, 0x75, 0x6c, 0x50, 0x61, 0x72, 0x74, 0x69, 0x74, 0x69,
  0x6f, 0x6e, 0x65, 0x64, 0x43, 0x61, 0x6c, 0x6c, 0x5f, 0x31, 0x2f, 0x53,
  0x74, 0x61, 0x74, 0x65, 0x66, 0x75, 0x6c, 0x50, 0x61, 0x72, 0x74, 0x69,
  0x74, 0x69, 0x6f, 0x6e, 0x65, 0x64, 0x43, 0x61, 0x6c, 0x6c, 0x2f, 0x73,
  0x65, 0x71, 0x75, 0x65, 0x6e, 0x74, 0x69, 0x61, 0x6c, 0x5f, 0x36, 0x5f,
  0x31, 0x2f, 0x72, 0x65, 0x73, 0x68, 0x61, 0x70, 0x65, 0x5f, 0x36, 0x5f,
  0x31, 0x2f, 0x73, 0x74, 0x72, 0x69, 0x64, 0x65, 0x64, 0x5f, 0x73, 0x6c,
  0x69, 0x63, 0x65, 0x00, 0x00, 0x00, 0x00, 0x00, 0xca, 0xfb, 0xff, 0xff,
  0x00, 0x00, 0x00, 0x01, 0x14, 0x00, 0x00, 0x00, 0x14, 0x00, 0x00, 0x00,
  0x0c, 0x00, 0x00, 0x00, 0x00, 0x00, 0x00, 0x02, 0x80, 0x00, 0x00, 0x00,
  0xb4, 0xfb, 0xff, 0xff, 0x73, 0x00, 0x00, 0x00, 0x73, 0x65, 0x71, 0x75,
  0x65, 0x6e, 0x74, 0x69, 0x61, 0x6c, 0x5f, 0x36, 0x5f, 0x31, 0x2f, 0x72,
  0x65, 0x73, 0x68, 0x61, 0x70, 0x65, 0x5f, 0x36, 0x5f, 0x31, 0x2f, 0x53,
  0x68, 0x61, 0x70, 0x65, 0x3b, 0x53, 0x74, 0x61, 0x74, 0x65, 0x66, 0x75,
  0x6c, 0x50, 0x61, 0x72, 0x74, 0x69, 0x74, 0x69, 0x6f, 0x6e, 0x65, 0x64,
  0x43, 0x61, 0x6c, 0x6c, 0x5f, 0x31, 0x2f, 0x53, 0x74, 0x61, 0x74, 0x65,
  0x66, 0x75, 0x6c, 0x50, 0x61, 0x72, 0x74, 0x69, 0x74, 0x69, 0x6f, 0x6e,
  0x65, 0x64, 0x43, 0x61, 0x6c, 0x6c, 0x2f, 0x73, 0x65, 0x71, 0x75, 0x65,
  0x6e, 0x74, 0x69, 0x61, 0x6c, 0x5f, 0x36, 0x5f, 0x31, 0x2f, 0x72, 0x65,
  0x73, 0x68, 0x61, 0x70, 0x65, 0x5f, 0x36, 0x5f, 0x31, 0x2f, 0x53, 0x68,
  0x61, 0x70, 0x65, 0x00, 0x01, 0x00, 0x00, 0x00, 0x02, 0x00, 0x00, 0x00,
  0x6a, 0xfc, 0xff, 0xff, 0x00, 0x00, 0x00, 0x01, 0x14, 0x00, 0x00, 0x00,
  0xa8, 0x00, 0x00, 0x00, 0x0b, 0x00, 0x00, 0x00, 0x00, 0x00, 0x00, 0x09,
  0xb4, 0x00, 0x00, 0x00, 0xec, 0xfb, 0xff, 0xff, 0x08, 0x00, 0x00, 0x00,
  0x60, 0x00, 0x00, 0x00, 0x0b, 0x00, 0x00, 0x00, 0x00, 0x00, 0x00, 0x00,
  0x00, 0x00, 0x00, 0x00, 0x00, 0x00, 0x00, 0x00, 0x00, 0x00, 0x00, 0x00,
  0x00, 0x00, 0x00, 0x00, 0x00, 0x00, 0x00, 0x00, 0x00, 0x00, 0x00, 0x00,
  0x00, 0x00, 0x00, 0x00, 0x00, 0x00, 0x00, 0x00, 0x00, 0x00, 0x00, 0x00,
  0x00, 0x00, 0x00, 0x00, 0x00, 0x00, 0x00, 0x00, 0x00, 0x00, 0x00, 0x00,
  0x00, 0x00, 0x00, 0x00, 0x00, 0x00, 0x00, 0x00, 0x00, 0x00, 0x00, 0x00,
  0x00, 0x00, 0x00, 0x00, 0x00, 0x00, 0x00, 0x00, 0x00, 0x00, 0x00, 0x00,
  0x00, 0x00, 0x00, 0x00, 0x00, 0x00, 0x00, 0x00, 0x00, 0x00, 0x00, 0x00,
  0x0b, 0x00, 0x00, 0x00, 0x72, 0x4b, 0x13, 0x3b, 0x1c, 0x21, 0x61, 0x3b,
  0xb5, 0xaa, 0xf7, 0x3a, 0x16, 0x8a, 0xd2, 0x3a, 0xed, 0xf4, 0xf1, 0x3a,
  0x18, 0x7e, 0x18, 0x3a, 0x95, 0xa4, 0xe5, 0x3a, 0x6e, 0x95, 0xdb, 0x3a,
  0x82, 0xb8, 0xc1, 0x3a, 0x43, 0x7d, 0xfc, 0x3a, 0xa9, 0x55, 0xd1, 0x3a,
  0x12, 0x00, 0x00, 0x00, 0x74, 0x66, 0x6c, 0x2e, 0x70, 0x73, 0x65, 0x75,
  0x64, 0x6f, 0x5f, 0x71, 0x63, 0x6f, 0x6e, 0x73, 0x74, 0x33, 0x00, 0x00,
  0x04, 0x00, 0x00, 0x00, 0x0b, 0x00, 0x00, 0x00, 0x03, 0x00, 0x00, 0x00,
  0x03, 0x00, 0x00, 0x00, 0x01, 0x00, 0x00, 0x00, 0x4a, 0xfd, 0xff, 0xff,
  0x00, 0x00, 0x00, 0x01, 0x14, 0x00, 0x00, 0x00, 0xac, 0x00, 0x00, 0x00,
  0x0a, 0x00, 0x00, 0x00, 0x00, 0x00, 0x00, 0x02, 0xb8, 0x00, 0x00, 0x00,
  0xcc, 0xfc, 0xff, 0xff, 0x08, 0x00, 0x00, 0x00, 0x64, 0x00, 0x00, 0x00,
  0x0b, 0x00, 0x00, 0x00, 0x00, 0x00, 0x00, 0x00, 0x00, 0x00, 0x00, 0x00,
  0x00, 0x00, 0x00, 0x00, 0x00, 0x00, 0x00, 0x00, 0x00, 0x00, 0x00, 0x00,
  0x00, 0x00, 0x00, 0x00, 0x00, 0x00, 0x00, 0x00, 0x00, 0x00, 0x00, 0x00,
  0x00, 0x00, 0x00, 0x00, 0x00, 0x00, 0x00, 0x00, 0x00, 0x00, 0x00, 0x00,
  0x00, 0x00, 0x00, 0x00, 0x00, 0x00, 0x00, 0x00, 0x00, 0x00, 0x00, 0x00,
  0x00, 0x00, 0x00, 0x00, 0x00, 0x00, 0x00, 0x00, 0x00, 0x00, 0x00, 0x00,
  0x00, 0x00, 0x00, 0x00, 0x00, 0x00, 0x00, 0x00, 0x00, 0x00, 0x00, 0x00,
  0x00, 0x00, 0x00, 0x00, 0x00, 0x00, 0x00, 0x00, 0x00, 0x00, 0x00, 0x00,
  0x0b, 0x00, 0x00, 0x00, 0x26, 0xd7, 0x38, 0x3a, 0xf4, 0x41, 0x8d, 0x3a,
  0x18, 0x66, 0x1b, 0x3a, 0x68, 0x1a, 0x04, 0x3a, 0xe5, 0xd0, 0x17, 0x3a,
  0xfb, 0x5c, 0x3f, 0x39, 0xf4, 0x16, 0x10, 0x3a, 0x2c, 0xc7, 0x09, 0x3a,
  0xbd, 0x19, 0xf3, 0x39, 0xb7, 0x6c, 0x1e, 0x3a, 0xe3, 0x58, 0x03, 0x3a,
  0x12, 0x00, 0x00, 0x00, 0x74, 0x66, 0x6c, 0x2e, 0x70, 0x73, 0x65, 0x75,
  0x64, 0x6f, 0x5f, 0x71, 0x63, 0x6f, 0x6e, 0x73, 0x74, 0x32, 0x00, 0x00,
  0x01, 0x00, 0x00, 0x00, 0x0b, 0x00, 0x00, 0x00, 0x22, 0xfe, 0xff, 0xff,
  0x00, 0x00, 0x00, 0x01, 0x14, 0x00, 0x00, 0x00, 0x30, 0x00, 0x00, 0x00,
  0x09, 0x00, 0x00, 0x00, 0x00, 0x00, 0x00, 0x09, 0x3c, 0x00, 0x00, 0x00,
  0xa4, 0xfd, 0xff, 0xff, 0x08, 0x00, 0x00, 0x00, 0x10, 0x00, 0x00, 0x00,
  0x01, 0x00, 0x00, 0x00, 0x00, 0x00, 0x00, 0x00, 0x00, 0x00, 0x00, 0x00,
  0x01, 0x00, 0x00, 0x00, 0x43, 0xf5, 0xd2, 0x3b, 0x12, 0x00, 0x00, 0x00,
  0x74, 0x66, 0x6c, 0x2e, 0x70, 0x73, 0x65, 0x75, 0x64, 0x6f, 0x5f, 0x71,
  0x63, 0x6f, 0x6e, 0x73, 0x74, 0x31, 0x00, 0x00, 0x02, 0x00, 0x00, 0x00,
  0x02, 0x00, 0x00, 0x00, 0x2c, 0x0b, 0x00, 0x00, 0x82, 0xfe, 0xff, 0xff,
  0x00, 0x00, 0x00, 0x01, 0x14, 0x00, 0x00, 0x00, 0x30, 0x00, 0x00, 0x00,
  0x08, 0x00, 0x00, 0x00, 0x00, 0x00, 0x00, 0x02, 0x3c, 0x00, 0x00, 0x00,
  0x04, 0xfe, 0xff, 0xff, 0x08, 0x00, 0x00, 0x00, 0x10, 0x00, 0x00, 0x00,
  0x01, 0x00, 0x00, 0x00, 0x00, 0x00, 0x00, 0x00, 0x00, 0x00, 0x00, 0x00,
  0x01, 0x00, 0x00, 0x00, 0xba, 0x52, 0x2b, 0x3a, 0x11, 0x00, 0x00, 0x00,
  0x74, 0x66, 0x6c, 0x2e, 0x70, 0x73, 0x65, 0x75, 0x64, 0x6f, 0x5f, 0x71,
  0x63, 0x6f, 0x6e, 0x73, 0x74, 0x00, 0x00, 0x00, 0x01, 0x00, 0x00, 0x00,
  0x02, 0x00, 0x00, 0x00, 0xde, 0xfe, 0xff, 0xff, 0x00, 0x00, 0x00, 0x01,
  0x14, 0x00, 0x00, 0x00, 0x14, 0x00, 0x00, 0x00, 0x07, 0x00, 0x00, 0x00,
  0x00, 0x00, 0x00, 0x02, 0x1c, 0x00, 0x00, 0x00, 0xc8, 0xfe, 0xff, 0xff,
  0x0f, 0x00, 0x00, 0x00, 0x61, 0x72, 0x69, 0x74, 0x68, 0x2e, 0x63, 0x6f,
  0x6e, 0x73, 0x74, 0x61, 0x6e, 0x74, 0x35, 0x00, 0x01, 0x00, 0x00, 0x00,
  0x02, 0x00, 0x00, 0x00, 0x1a, 0xff, 0xff, 0xff, 0x00, 0x00, 0x00, 0x01,
  0x14, 0x00, 0x00, 0x00, 0x14, 0x00, 0x00, 0x00, 0x03, 0x00, 0x00, 0x00,
  0x00, 0x00, 0x00, 0x02, 0x1c, 0x00, 0x00, 0x00, 0x04, 0xff, 0xff, 0xff,
  0x0f, 0x00, 0x00, 0x00, 0x61, 0x72, 0x69, 0x74, 0x68, 0x2e, 0x63, 0x6f,
  0x6e, 0x73, 0x74, 0x61, 0x6e, 0x74, 0x34, 0x00, 0x00, 0x00, 0x00, 0x00,
  0x52, 0xff, 0xff, 0xff, 0x00, 0x00, 0x00, 0x01, 0x14, 0x00, 0x00, 0x00,
  0x14, 0x00, 0x00, 0x00, 0x05, 0x00, 0x00, 0x00, 0x00, 0x00, 0x00, 0x02,
  0x1c, 0x00, 0x00, 0x00, 0x3c, 0xff, 0xff, 0xff, 0x0f, 0x00, 0x00, 0x00,
  0x61, 0x72, 0x69, 0x74, 0x68, 0x2e, 0x63, 0x6f, 0x6e, 0x73, 0x74, 0x61,
  0x6e, 0x74, 0x33, 0x00, 0x00, 0x00, 0x00, 0x00, 0x8a, 0xff, 0xff, 0xff,
  0x00, 0x00, 0x00, 0x01, 0x14, 0x00, 0x00, 0x00, 0x14, 0x00, 0x00, 0x00,
  0x04, 0x00, 0x00, 0x00, 0x00, 0x00, 0x00, 0x02, 0x1c, 0x00, 0x00, 0x00,
  0x74, 0xff, 0xff, 0xff, 0x0f, 0x00, 0x00, 0x00, 0x61, 0x72, 0x69, 0x74,
  0x68, 0x2e, 0x63, 0x6f, 0x6e, 0x73, 0x74, 0x61, 0x6e, 0x74, 0x32, 0x00,
  0x00, 0x00, 0x00, 0x00, 0xc2, 0xff, 0xff, 0xff, 0x00, 0x00, 0x00, 0x01,
  0x14, 0x00, 0x00, 0x00, 0x14, 0x00, 0x00, 0x00, 0x03, 0x00, 0x00, 0x00,
  0x00, 0x00, 0x00, 0x02, 0x1c, 0x00, 0x00, 0x00, 0xac, 0xff, 0xff, 0xff,
  0x0f, 0x00, 0x00, 0x00, 0x61, 0x72, 0x69, 0x74, 0x68, 0x2e, 0x63, 0x6f,
  0x6e, 0x73, 0x74, 0x61, 0x6e, 0x74, 0x31, 0x00, 0x01, 0x00, 0x00, 0x00,
  0x01, 0x00, 0x00, 0x00, 0x00, 0x00, 0x16, 0x00, 0x1c, 0x00, 0x18, 0x00,
  0x17, 0x00, 0x10, 0x00, 0x0c, 0x00, 0x08, 0x00, 0x00, 0x00, 0x00, 0x00,
  0x00, 0x00, 0x07, 0x00, 0x16, 0x00, 0x00, 0x00, 0x00, 0x00, 0x00, 0x01,
  0x18, 0x00, 0x00, 0x00, 0x18, 0x00, 0x00, 0x00, 0x02, 0x00, 0x00, 0x00,
  0x00, 0x00, 0x00, 0x02, 0x20, 0x00, 0x00, 0x00, 0x04, 0x00, 0x04, 0x00,
  0x04, 0x00, 0x00, 0x00, 0x0e, 0x00, 0x00, 0x00, 0x61, 0x72, 0x69, 0x74,
  0x68, 0x2e, 0x63, 0x6f, 0x6e, 0x73, 0x74, 0x61, 0x6e, 0x74, 0x00, 0x00,
  0x01, 0x00, 0x00, 0x00, 0x01, 0x00, 0x00, 0x00, 0x00, 0x00, 0x16, 0x00,
  0x20, 0x00, 0x1c, 0x00, 0x1b, 0x00, 0x14, 0x00, 0x10, 0x00, 0x0c, 0x00,
  0x00, 0x00, 0x00, 0x00, 0x08, 0x00, 0x07, 0x00, 0x16, 0x00, 0x00, 0x00,
  0x00, 0x00, 0x00, 0x01, 0x18, 0x00, 0x00, 0x00, 0x2c, 0x00, 0x00, 0x00,
  0x48, 0x00, 0x00, 0x00, 0x01, 0x00, 0x00, 0x00, 0x00, 0x00, 0x00, 0x09,
  0x60, 0x00, 0x00, 0x00, 0x02, 0x00, 0x00, 0x00, 0xff, 0xff, 0xff, 0xff,
  0x60, 0x09, 0x00, 0x00, 0x0c, 0x00, 0x0c, 0x00, 0x00, 0x00, 0x00, 0x00,
  0x08, 0x00, 0x04, 0x00, 0x0c, 0x00, 0x00, 0x00, 0x08, 0x00, 0x00, 0x00,
  0x10, 0x00, 0x00, 0x00, 0x01, 0x00, 0x00, 0x00, 0x7f, 0x00, 0x00, 0x00,
  0x00, 0x00, 0x00, 0x00, 0x01, 0x00, 0x00, 0x00, 0xa1, 0xa0, 0xa0, 0x3e,
  0x1f, 0x00, 0x00, 0x00, 0x73, 0x65, 0x72, 0x76, 0x69, 0x6e, 0x67, 0x5f,
  0x64, 0x65, 0x66, 0x61, 0x75, 0x6c, 0x74, 0x5f, 0x6b, 0x65, 0x72, 0x61,
  0x73, 0x5f, 0x74, 0x65, 0x6e, 0x73, 0x6f, 0x72, 0x5f, 0x33, 0x30, 0x00,
  0x02, 0x00, 0x00, 0x00, 0x01, 0x00, 0x00, 0x00, 0x60, 0x09, 0x00, 0x00,
  0x07, 0x00, 0x00, 0x00, 0x88, 0x00, 0x00, 0x00, 0x6c, 0x00, 0x00, 0x00,
  0x5c, 0x00, 0x00, 0x00, 0x4c, 0x00, 0x00, 0x00, 0x38, 0x00, 0x00, 0x00,
  0x18, 0x00, 0x00, 0x00, 0x04, 0x00, 0x00, 0x00, 0xe0, 0xff, 0xff, 0xff,
  0x19, 0x00, 0x00, 0x00, 0x02, 0x00, 0x00, 0x00, 0x00, 0x00, 0x00, 0x19,
  0xf0, 0xff, 0xff, 0xff, 0x09, 0x00, 0x00, 0x00, 0x04, 0x00, 0x00, 0x00,
  0x00, 0x00, 0x00, 0x09, 0x0c, 0x00, 0x10, 0x00, 0x0f, 0x00, 0x00, 0x00,
  0x08, 0x00, 0x04, 0x00, 0x0c, 0x00, 0x00, 0x00, 0x03, 0x00, 0x00, 0x00,
  0x03, 0x00, 0x00, 0x00, 0x00, 0x00, 0x00, 0x03, 0xdc, 0xff, 0xff, 0xff,
  0x16, 0x00, 0x00, 0x00, 0x00, 0x00, 0x00, 0x16, 0xe8, 0xff, 0xff, 0xff,
  0x53, 0x00, 0x00, 0x00, 0x00, 0x00, 0x00, 0x53, 0xf4, 0xff, 0xff, 0xff,
  0x2d, 0x00, 0x00, 0x00, 0x00, 0x00, 0x00, 0x2d, 0x0c, 0x00, 0x0c, 0x00,
  0x0b, 0x00, 0x00, 0x00, 0x00, 0x00, 0x04, 0x00, 0x0c, 0x00, 0x00, 0x00,
  0x4d, 0x00, 0x00, 0x00, 0x00, 0x00, 0x00, 0x4d
};
unsigned int g_model_len = 10472;
